/**
  ******************************************************************************
  * @file    network_data.c
  * @author  AST Embedded Analytics Research Platform
  * @date    Fri Dec  6 09:08:22 2024
  * @brief   AI Tool Automatic Code Generator for Embedded NN computing
  ******************************************************************************
  * @attention
  *
  * Copyright (c) 2024 STMicroelectronics.
  * All rights reserved.
  *
  * This software component is licensed by ST under Ultimate Liberty license
  * SLA0044, the "License"; You may not use this file except in compliance with
  * the License. You may obtain a copy of the License at:
  *                             www.st.com/SLA0044
  *
  ******************************************************************************
  */
#include "network_data.h"
#include "ai_platform_interface.h"


AI_ALIGNED(32)
const ai_u64 s_network_weights_array_u64[ 51437 ] = {
  0x310de583c603e8fbU, 0x11e681b3feeaf407U, 0xfff6ebfc01f8021eU, 0x421eec84c6ffec01U,
  0x23ea81b3fffefb07U, 0xfbf6ebfefaff063fU, 0x3dae00fe0100fe07U, 0xc40e10dc384c8119U,
  0xa10e843328e1f22U, 0x28c0190ddbf3f518U, 0x1fU, 0x0U,
  0x0U, 0xdff5e3f000000000U, 0xf1c1dcf9d5ebf4c9U, 0xf8f4f3c0d5e381b5U,
  0x63f9ecf2f3e8e8f8U, 0xd7f430cae450c0dfU, 0xef3ba7dd769edd7fU, 0xf8e4001ace0626d0U,
  0x700U, 0x0U, 0x0U, 0x0U,
  0x0U, 0x0U, 0x0U, 0x0U,
  0x0U, 0x0U, 0x0U, 0x0U,
  0x0U, 0x0U, 0x0U, 0x0U,
  0x0U, 0x7ebaec7b3819100U, 0xefe4e7a1898918f7U, 0xeb031bdafe121812U,
  0xb010713U, 0x0U, 0x0U, 0x0U,
  0x0U, 0x0U, 0x0U, 0x2f9f322ea52b0000U,
  0x813d478c2f19d512U, 0xa2ad4001bc81c44U, 0x923d00fdf40b18dfU, 0xcc04fd17f4d921f6U,
  0x5d223ffeae5ffbeU, 0xaa4003ddda05d081U, 0xc3070000eec4U, 0xc000000000036d44U,
  0x219ce0001af27U, 0xc0000000c0000000U, 0x40000000c0000000U, 0xffff0c0cc0000000U,
  0xc0000040c2a21740U, 0xffff2e23000188f8U, 0xc6ee1f02f38101ffU, 0x48f8db81d5c34031U,
  0xdfc8f981149e00feU, 0x61f904867f81d95fU, 0xf2f00005090001ffU, 0x280242165cac0572U,
  0xfed67f03140f02fbU, 0x7181d999dacd5431U, 0xe78144577f0dd67fU, 0x7fb7011017dfde41U,
  0xfabaed0317138112U, 0x2b0f32cad0b0ef60U, 0xfceb5cfb03570001U, 0x2ba77feaef007f6bU,
  0xbcd33c0c602bff00U, 0x32b90e29eff6ff72U, 0x81eafbfa1c27fe01U, 0x20e2c02e7f9bd7fU,
  0x9cd4ffffff1fU, 0x67000049feU, 0xffffc3c70000457eU, 0xffffffbb00000551U,
  0xfffff03300000002U, 0x370ffffffd0U, 0xfffffc0bffffffa8U, 0x1a67d00015613U,
  0xffff0001ff00U, 0x147f0000fe000000U, 0xff810b00f9f505U, 0xd402000034000000U,
  0xffff000081c7U, 0xefe000008000000U, 0xfe36007fda29U, 0xe50a0000d3000000U,
  0x2fe00fe9f81U, 0xf3050000f9000000U, 0x108410081d02dU, 0xecff0000cf000000U,
  0x7f0e00fff906U, 0x80400002f000000U, 0xff7f00fe11edU, 0xdff0000f5000000U,
  0x55f5ffffb712U, 0xffff9b59000052e8U, 0x37fd00007c57U, 0xffffb411ffffb68eU,
  0x0U, 0x813d03ab084714beU, 0xfb11fd81fa8f03fbU, 0xfcfd81f584faffU,
  0xa0ee00b4f64b7f44U, 0x3e869812f75c0f4U, 0x7f2c25d93c1c2afaU, 0x309f781f48205fcU,
  0x7fb6fb29fbdf3bc1U, 0xfbe9087f0e76e901U, 0x7f0950e643180801U, 0x40f0300fafff87fU,
  0x81192cb72c411a14U, 0x41e0f64067f1b02U, 0x7f123ae1351514ffU, 0x33e9c88c81d1ce04U,
  0x0U, 0xdd1f538127d4230aU, 0x7ff4001e0ceef309U, 0xd7f047a47f50f107U,
  0xd01ffeeca160881U, 0x7fdbc640c992deedU, 0x681f50409fc7512U, 0x81059c13c0f60100U,
  0x70d4e97fe687f200U, 0x0U, 0xd1b07f82376a6048U, 0x2f00f7f0e68fd04U,
  0x1f4c3faa7f4dd4cbU, 0xfdf70200ff000981U, 0x81e2ce16deebe6ffU, 0xfc14f1810783f2edU,
  0x0U, 0xcdf77fb8482bfef8U, 0x88748cd5c1387ffeU, 0x81e9b412cbf0ecfdU,
  0x204027f077d0500U, 0xfcfc0883f581f901U, 0xfd047f097a0000U, 0x7ceecb43b6810602U,
  0x81211ca0396e1bf5U, 0xfe7bef02120081dfU, 0xdcfc41e449117fa4U, 0xfc087e0281fcf702U,
  0x37f598027f02ecfbU, 0x7fdac65debacda04U, 0xfefe067f0a7a0102U, 0x7f2edb1704f1c7d7U,
  0xffffe6cbfedeb14eU, 0x8200000ceaU, 0xfffff7a7ffffe8feU, 0x79000002e1U,
  0xa16ffffeb60U, 0x19e40000022bU, 0xfffff55700003f0fU, 0xfffff06f00000343U,
  0xffffefd30897a5e0U, 0x267bfffff898U, 0x26180000086cU, 0x1770000269bU,
  0x70bf11000036daU, 0x12f5ffffe0efU, 0x213300002c72U, 0x102e00000befU,
  0xfffff0093fffffc0U, 0x150fffffbc2U, 0xe4cffffff0eU, 0x1f47ffffff09U,
  0x11f700002d06U, 0xd4bfffff451U, 0x241bffffebd1U, 0xfffff041000007a6U,
  0xd8b099049e05e1fdU, 0x8efa71f6cf1e13e9U, 0x2b8e9af8c3d63326U, 0xcb32812181ee190bU,
  0xbaa262a4d93d7f06U, 0xee334b54e2c4a2aaU, 0xcb815b218b670b44U, 0x91bf7559492f0606U,
  0x6c37e42a81be3e2bU, 0xef631251459d2b64U, 0xcd8172a3810c3675U, 0x63aa77fd567f95fU,
  0x93b76142f6f01921U, 0x30004b56e16fa21U, 0x207f7fba14cd272dU, 0x12a6813f9b1ec8bU,
  0x7ffcffd7de38fea0U, 0xcfe0f2909796afeU, 0xb93a89e19dfefa1eU, 0x81387fe1fd1258ceU,
  0xcab5b8bee41c3037U, 0x7f17ecbd76021e06U, 0xca98709500c931d1U, 0xdf0a70a5afc42e98U,
  0xcd687f3781817f4fU, 0x857f7c7f05fb817fU, 0x8112e43883683f52U, 0x1d032281bb02637fU,
  0xd5817f81fb81fd6bU, 0x7f4581065b71467fU, 0x812d7801f4136437U, 0x434ff9d0f0e1559U,
  0xcf0f697f06f1287fU, 0xfc0b0fc908fe3386U, 0x59f303cd0613c581U, 0x3af508be464e3be4U,
  0xf8fcdc1ee9fc1ef7U, 0xe6f213f626cd96daU, 0x1b1b043d5330ea28U, 0xb5c7111b051304f1U,
  0xfce21ae11cabdae4U, 0xf5c4133ab4d0f5e9U, 0xec1ad27ff11b6015U, 0xe2b01122c5817d75U,
  0x370df1b96b7f8166U, 0xf4810b40047f7f1fU, 0xf5ee1ec342a8911dU, 0x7681dffe7da8d024U,
  0xe5f5a04bfefa567fU, 0x6f4f0e881d5ed53U, 0x19db08cb24fdb660U, 0x3bace1bfc4e64ebU,
  0x11fcf8001d059ab6U, 0x440c14db7f8181f4U, 0xffffcb73fffffd47U, 0x6602fffffffaU,
  0x21ffffe7f0U, 0x3efdc00015a9eU, 0xfffffeccffffe24aU, 0x125500000ba4U,
  0xc04000003aeU, 0x465800000459U, 0x4ffffcd7dU, 0x114a4ffffd464U,
  0x36afffff536U, 0x4a6400000b3aU, 0xfffff79200000825U, 0x17a00003d30U,
  0x11eb000003ffU, 0x7900000d73U, 0x3a940000a9edU, 0x18660000dd52U,
  0xffff411600013661U, 0xfffffe5c000072b8U, 0x556000005e6U, 0xffffdf3800000b81U,
  0x650dffffee22U, 0xffffdd2900000002U, 0x14f2f716fd060000U, 0xfcfdf5b8d70e0830U,
  0xfb74f60fda000800U, 0x5ec31ff03dd0022U, 0x30bfa010dfbfe18U, 0xe90083e65e208189U,
  0x7effbfc129afd00U, 0x2ee6db010104adffU, 0xebfa1700f6f6db00U, 0x81fc03258f0000f7U,
  0xfc1ff30306050c2cU, 0xb1fef5fbfe0707U, 0xfbe4101c0200e800U, 0x50903fe6a3b02dfU,
  0xfc0f16d0aef41200U, 0x1c281ef01cb0005U, 0xee0000032eddfdadU, 0xe60012d20de8d609U,
  0x534d608fdfbda00U, 0xfef4f6fb44acfaf5U, 0xd1ed1e67f2ce600U, 0xfa5db315fae30002U,
  0x210300ffb93fd7bcU, 0xf5fae92e17fed4fbU, 0xc2ef13049bcd0a00U, 0xc8e176edfffdd503U,
  0xd50613ff071a4800U, 0xc71e0645cff800f8U, 0xf1a87f8ef8d3f9d6U, 0x1ed1ce1060307fdU,
  0xdfffde0f909f600U, 0xf8f5f6cd28f50ad8U, 0xfb8ff1f906fe0000U, 0xa09e5080627000bU,
  0x807fd01fb0a11aeU, 0x1d058d10a6e47f8cU, 0xec0fcfe0e210100U, 0x29bec0e07f71efdU,
  0xb701070616fefb00U, 0x2e01fc7f24f700faU, 0xfd09e71b03fb07f5U, 0xfd1601d4fd01ff04U,
  0xf6011b0303f71200U, 0x3f9fcb1f300f8f7U, 0xfcf2810605040000U, 0xf4fd1007f7020061U,
  0x5800ff01030bf30cU, 0xfffa25fff6031138U, 0x849000064eeU, 0xffffb23e00006e8bU,
  0x90f30000a2b5U, 0xffffe0e700000e05U, 0x15fe7fefb1de0291U, 0xe9810607ca5a8a08U,
  0x0U, 0xe41390deecfe0781U, 0xf581e7cc4fd4e3e0U, 0xefc7ff9e5130788U,
  0xf10500dc7f90f2d8U, 0xe017fea001b1492U, 0x167f032bcd2c5918U, 0xf4ff0d14527feff1U,
  0x8fa34f992810cd4U, 0x7fff09eb120df820U, 0x9047f121f2a0681U, 0x7ffdeb030d0feff1U,
  0xde3a8193e7fdc584U, 0x117f0cff38dc21ffU, 0x7e4001304027f02U, 0x7f07a6e7041af7b7U,
  0x81fbc9b321e80dU, 0xf88104c1a53a82ffU, 0x1e81f10b854fd914U, 0xb5e7197ff4089d0eU,
  0x26ce708121e9c972U, 0xd1018fdcf6f44981U, 0xb7f0324fefe3508U, 0x810ef7d5ee0b07e8U,
  0xed19a2ca7f56166cU, 0x4af76ff80b08097fU, 0x7f00e8040f09eef2U, 0x417fea30a0435611U,
  0xf1a0f8d98122dc15U, 0xf00205035f7ffffdU, 0x97f022c0afb3203U, 0x81fc44ed03ed1045U,
  0x81fd2bfffaf00e20U, 0x657fe20a9e372301U, 0x11efdc0aa5813723U, 0xfd7f033a4dda27f2U,
  0xdfb7f06e30f0088U, 0x810502f8e8f617f7U, 0x4aee67010ffc2a7fU, 0x0U,
  0x815b1921a41b352aU, 0x10fa31f9918105d3U, 0x7f060eef12f6ec1fU, 0xbaef981ac3317fdU,
  0x1009f43eea0681f1U, 0x7f24bacf0b35dec6U, 0x15a9000027b7U, 0x2f10cad7bf0U,
  0xfc70000467fU, 0x34a7fffffca2U, 0x1a500001104U, 0x2900013d77U,
  0xf8c000097caU, 0x245afffffe03U, 0x106fffffc48U, 0x568bfffff9c2U,
  0xe960000259fU, 0xfffffb06000007ceU, 0x5a00001d61U, 0xfffffeac00001f71U,
  0x4ca60000006bU, 0x52300003323U, 0x373000020d5U, 0x2bb2000000d2U,
  0x6940000113dU, 0x7f000031deU, 0xfd936cf800000039U, 0x409000027f7U,
  0x36600000292U, 0x2ce00000a3fU, 0xffeff909017fb2c6U, 0xe401064df5d0e301U,
  0x413f97fef10fef9U, 0xe3d0020001f7f801U, 0xf7040505060503e8U, 0xeaaf8df7d50c03fbU,
  0xea2e9824bc5c8190U, 0x4dc9f47ffc7f1efcU, 0x101ecefac810c04U, 0xc881efbe07d5fd1aU,
  0xfc5d8108d8f8e519U, 0x60b6e01a1d4d9cfU, 0x2bed2eff006be1f8U, 0xd001f419ffa8feffU,
  0x15fab8e31cf501U, 0x17f003f9003702fdU, 0x8d503190d00f800U, 0xf8000407ae158e02U,
  0xfff32beffe0d2e4eU, 0x39e5abbd73b196e4U, 0xea7eeca57f04d312U, 0x466b22d300167f0fU,
  0xabd30a210f07df87U, 0xd3817f811aebf509U, 0x817f7f817f307d7fU, 0x817f7f9281fb7f7fU,
  0x81a27ff411a37f81U, 0x7f9b817f8181cc7fU, 0x7f87787fec7fd47fU, 0xdf7399727fe49f7fU,
  0x68e28406f93e1a0eU, 0x43e8fff70b3fe8a0U, 0xf3f5d86e64f2a710U, 0xc048ffe1137fe0fcU,
  0xf27ffe3bedd17f03U, 0x7feaedf4843081f4U, 0xfced0b07000315feU, 0xefe50f609f1c705U,
  0xff81fe0c2308f9f2U, 0xfbf1e4f206f908fdU, 0xdbf5fffacb05eeecU, 0xecfd0edf0c05c705U,
  0xc1e31825c9e204d7U, 0xebc08f0fe6fd48f4U, 0xf878c601ae231835U, 0x2d4675b1fec60615U,
  0x24e304407f0bef14U, 0xd5d6f911f57f85b9U, 0x3de6f0fbfe0f0912U, 0x7000af2ff02fa06U,
  0x20500f3050eeaf6U, 0xf1f206f3043de8faU, 0x205fdf806f21601U, 0x2015fe0ba8ba9403U,
  0x177fffffadbU, 0xffffffefffffd4cdU, 0x24e00003315U, 0x53600000402U,
  0xfffffc2bffffffc6U, 0x32a00003b6cU, 0x6cffffee83U, 0xd800005334U,
  0xffffff8a00002f7eU, 0xffffd7db00008b39U, 0x35e300009901U, 0x13e7fffff812U,
  0x2a13ffffc9f2U, 0x7b34fffff253U, 0x42a00006b60U, 0xf94800008cdfU,
  0x60a8fffffcc6U, 0x3ce8fffffd21U, 0xffffff77ffff75a5U, 0xfffffd1b000006e1U,
  0xffffff1ffffffd14U, 0xea00003ff3U, 0xfffffe330000052eU, 0x4d6900003af6U,
  0xe8fb81f4a300f3f4U, 0xf954fffb2928f817U, 0x5c1ac8090dfbd3faU, 0xfdea01e327d7afffU,
  0xdf7efee119bd1c00U, 0xcde206cbe4f80046U, 0x38f8f507d1000a04U, 0xc80ecf0b1c0814c5U,
  0xf7fcab2511021881U, 0xfbf8f4ebcc1904e9U, 0x1ed0f00930100bcbU, 0x102e5000bcb00dbU,
  0xde30a030b000201U, 0xf0d051e347a1605U, 0xfc07f8f10af208fbU, 0x7fa30c20faffd412U,
  0x10fc00533ff63909U, 0xbe0d02c5a13300f7U, 0x162af801e2000bedU, 0xed06fe00c17712f1U,
  0x1001070de71401f7U, 0x527ff1eafc0150f5U, 0xfb0ffe46a116aef8U, 0x5febfa53b7c20012U,
  0x34f5f0e1d800f3ebU, 0xcd4fd0f019001ecfU, 0x9de406019181732U, 0xdfede21ab2df9ceU,
  0x25f1d300613418c3U, 0xf904d90bfe8100fdU, 0xdef77ff2ae00fc1cU, 0xf43bfe030100e50aU,
  0x530eb3240610d21eU, 0xf7fbf5cd3101c0edU, 0xd88ef8151bb401feU, 0xe2d401e31ad0003dU,
  0xfbda08c62200cbcdU, 0xad119cbf8200508U, 0xfb18d8d33526fb06U, 0x3f0d7e319fd0381U,
  0xf710ca0302f7fbd5U, 0x5fc06fbf5370008U, 0x2fee0c02f500fbe3U, 0x111f27df3ad6260fU,
  0x142749a30f052ce5U, 0xffeaea33a531fdebU, 0x4402f9fbc8562b00U, 0xf2361f05057f0029U,
  0x5f86fffffec1U, 0xffffab6bffffb081U, 0x5b0ffffbfc9U, 0x628000008abU,
  0xf303c408667ff03cU, 0xfcff0a10f7008108U, 0xf9077ffb20a21592U, 0xf9011c005f7fefe8U,
  0xea0d81144b1ceb78U, 0x92e731767fad260fU, 0xbd5b68bd7faf1bfcU, 0x4098a458812fa8fdU,
  0x451af49d7fbadbe4U, 0x5fee801a1810216U, 0x7f1137fef033ffU, 0x4ee1a97fd406d2d5U,
  0xcf37ff9d5edfc86U, 0x7fce6f6e0f0d2372U, 0xefb7c02f9170481U, 0x6724e181f70790f3U,
  0x6003b37f09f669c1U, 0x40f6c77fe2fb9ed0U, 0x17eee0087f93dfc7U, 0xc0fd31811ef84b31U,
  0xbeed0b5c81432d1fU, 0xf20410f87f0806edU, 0xbeb7805c9effd81U, 0x19caecfd816c090bU,
  0xf304830318c9ec7fU, 0xca1a81dbf418de97U, 0xef1e828813e0642U, 0x1481dcdb060717e9U,
  0xbe7f41d47bbf2a26U, 0x1ebae6117fa4c4b6U, 0x2d03f52381260605U, 0xcfc7ffad8e0158eU,
  0x1227ff0b0512496U, 0xdf57febceeb0f8eU, 0xfb0f85058140f174U, 0x722cd381864ad8fbU,
  0xf71bd4fd047f072dU, 0xb57f2bbccc2d4c43U, 0xfeb6f11d7fc6dfe7U, 0xb5f13681f8f9de41U,
  0xf201cbfe53810134U, 0x10915fac37ffcf1U, 0xf881fbb40413d704U, 0x430ec67fed0a9dd5U,
  0x40635f2812a0cd5U, 0xb77f67bb50e34106U, 0x1e00da5ceb0481e4U, 0xfa0b9523f0051081U,
  0xb8600000147U, 0xffffffe0000002d0U, 0xc10000177dU, 0x16a20000a46cU,
  0x8e000000bfU, 0x1a91fffffdf4U, 0x27900001404U, 0x58f0000006eU,
  0x9f5000001e1U, 0x588500001e2eU, 0x6990000006eU, 0x491f00001f6aU,
  0x53000000ffU, 0x8c100000e0cU, 0x157cfffff8e9U, 0x15ef00001585U,
  0x12d0000001d5U, 0x1390000015dU, 0xfffff80a00000148U, 0x1c40000022cU,
  0xfffffff200000485U, 0x115d00000516U, 0x8101fffffff4U, 0x22800001928U,
  0xcfc0438ccfc93f5bU, 0xb123341857bc3b2dU, 0x8d58ec1e17ae33c2U, 0x1ca5d2303378c841U,
  0x39bf3fd9383d78c9U, 0x39be23c958b144dcU, 0x8a7f437ab4ae5a7bU, 0xa74d4d7f6caa5c50U,
  0x8118d44ab2f55facU, 0x97208150502aac53U, 0x549b51c44e5c54adU, 0x4ea4b5b2e09d5eb4U,
  0xf80f0a77d8db2632U, 0xdc2f215933d63429U, 0xbcb1db323d4745d5U, 0xfa6c9e362181e623U,
  0x20cf1be21f2be5d2U, 0x1cdabfded1d228d1U, 0x7f684c7e9fb1595dU, 0xb94758aa12a46150U,
  0xfd12c74d3181469eU, 0x7f81205056f19960U, 0x569956ba546166a9U, 0x59a75dab7f9b5bb9U,
  0xd6827f7f81817f7fU, 0x817f7f95f3817f7fU, 0x177f817f81117f81U, 0x960c1c7f7f13817fU,
  0x7f817f817f7fa781U, 0x7f817f81c3817f81U, 0xbeef39c9c5b73746U, 0xc045323cdfc3423bU,
  0xc12b73b607b5fb5U, 0x967d053e3624cf3cU, 0x35d441c2353d81aaU, 0x31ce01c5b2c63cbeU,
  0x21d8117dc4d9281cU, 0xe62d2f1099d43c29U, 0x59b7da381eb227c9U, 0x46c541382483b931U,
  0x29c521d12228f6cfU, 0x25e1b6d83fc71ed4U, 0x372741c4bbb53933U, 0xc13c40b681c04237U,
  0x7c0bb73cb52038b4U, 0x37f5653a2f27b042U, 0x40cc3db43a408db1U, 0x3bd020bde0af37bfU,
  0xeefe359ce5da1723U, 0xd71a14eeaedf1b15U, 0x3b3bdb0e2c412cdaU, 0xda4236071048e920U,
  0x1cfa27da1e1ff9d9U, 0x18ef38ddd0e121e6U, 0xfffffcc600005f02U, 0xf42900005230U,
  0x595ffff7e6dU, 0x69afffff123U, 0x1b400000153U, 0x1018000299f9U,
  0x131fffffb77U, 0x98d0000001c5U, 0x2180000b9eeU, 0xffffee50fffffd02U,
  0x13ed900000845U, 0x314ffffd6aaU, 0x909500000204U, 0xd73fffffb2fU,
  0xffffff0000000ed0U, 0xc62ffffecb0U, 0x7d300005a1fU, 0x14200000381U,
  0x310f0000e013U, 0xcd80000cfc3U, 0xd4b0000f230U, 0x16b00009355U,
  0xffffca920000ba36U, 0x860002693cU, 0xfd05c303fefe7f0aU, 0xd405fbfcf5fc072dU,
  0xf7fd09d30afb2114U, 0xfe02f115f910edfcU, 0x110813fd3b0dfcfeU, 0xee1cfb0315020500U,
  0xd8e3060d1be3b607U, 0x1c1681e0affc01f7U, 0xaea30c52e4e55f3U, 0x15adee9fc0d2f99U,
  0x2ac9ddd0d31a1019U, 0x82c5de3659fc1b20U, 0xfefff3ffe90cf216U, 0x6ddf904f6f781efU,
  0xfc0402fc060305ffU, 0xa01f2fbeffe015aU, 0x11e722091d04e6U, 0xf7f300a90709a5ddU,
  0xfed9030c032ef4U, 0xa0416fafaed0481U, 0x6fd195303fd11fcU, 0xfe07fcf8d4fd01f1U,
  0xeb14faf5391f0403U, 0xfbe6fc0704100b17U, 0xa03fa09f701ede5U, 0xf9fbc501de2bf20cU,
  0xc604cbda123e1bfaU, 0x182bf11638171250U, 0xd92702f2177f1316U, 0xbad4045a1817c8f4U,
  0x602fdf2f32ef5f1U, 0x181f2090601fb09U, 0x12090a1ffd030206U, 0x5090bfff7060829U,
  0x1f605e5eff3ee11U, 0xf3f3090dfafe20e5U, 0x9fe40fcfc047f0eU, 0x1606030808ff17e3U,
  0x408f9210c064603U, 0xb030c021ef40509U, 0xecfa080491eaff06U, 0x10eb090f0cf5fbfdU,
  0x3050b03810508d9U, 0xf6f703fb0c09b4f0U, 0x1fbc511fe070200U, 0xf2fe100c110304fcU,
  0xf4f612ed13fc0501U, 0x2ff0224faff2541U, 0xf7ed81c6a001e652U, 0x25f42453c1122a40U,
  0xc555023a0efe11fdU, 0x57fde5a914f5ff41U, 0xe2107d3a7cdbeecU, 0x1f07f3ee0ffbec1aU,
  0x14febde41619fe84U, 0x4f2a2160aecd111U, 0xe02e185510591e04U, 0x33273ce1f0212f46U,
  0xe6a35135f79adcbcU, 0xaf0c1f8118f91c30U, 0xb08f0f022c400fbU, 0x23b122c2104dc45U,
  0x13293d26eafdcbf8U, 0x23ea28dcd20ef3c0U, 0xfbac3eebe37fec27U, 0x1c0f0f5ce601d12aU,
  0xf3fb02fdfd0201f2U, 0xfffbf8fff2e3fe34U, 0xf404fddff90cee00U, 0x100fff88100f706U,
  0xc5d70b04e8ebfe00U, 0x6d3f505fd3e0203U, 0xe6f0f9f604003fd0U, 0xfbea1bfae473ed18U,
  0xebfc13f4d50c811cU, 0xfdf6f4b420f9fcefU, 0xd3e7d902e907f502U, 0x2aa7e9f6cc2bfc17U,
  0x352804e820ec03edU, 0xfc0a00150907e826U, 0x121db32407e11e03U, 0x190dec5b3113febbU,
  0x27fb92dd832df0fU, 0xe1e62a18f50606deU, 0xeaed20ecef05e69dU, 0x3be32febe8beb3c3U,
  0xc5e702e325de66e4U, 0xf4c9f3d22dc6f2f6U, 0x7f2b0f058604ed1dU, 0x3375ee3f25abcc19U,
  0xfa01d3fd0a0ddbe5U, 0xe9e27ff7cf12e75fU, 0xedfd09d4230a32aaU, 0x60cdcee3a0ad7f9U,
  0xc8fde30449fcf4fbU, 0x7de6eded210607fcU, 0x38a4ffffbc94U, 0xfffff2d000006272U,
  0x1a74ffff9e2cU, 0x62dfffffbb81U, 0xb3a3000025e8U, 0x7c98ffffd57bU,
  0xffff66f4fffffff2U, 0x10f00000f36U, 0xd816a92c181c1dfaU, 0x3f31d0eec7fe3efU,
  0x19fd110cff81fbf0U, 0xe1dcdccc10d5bb55U, 0x2017e47faec09be9U, 0xe6000b100cdc38c6U,
  0x4e609fa34eeecefU, 0x60407c47f03f6fcU, 0xf5e50e1ddb1305b0U, 0x7ff023b01934375dU,
  0xb7af33857f011624U, 0x1311a1c89b680306U, 0xebec44e7f880804U, 0xda3e1f2b0e73d10dU,
  0x28e67fcd10a11c1aU, 0x4c4c394116f15184U, 0xe117f54fd3ceb29U, 0x1ef2cafce05cbfcbU,
  0xfaef1e8135211d07U, 0x291e7d48641e700U, 0x3c7f2c77448e30cU, 0xfaee0c06dd81412bU,
  0xf56df8d20a10fa5bU, 0x797ff6e4e8fbdd07U, 0x3204c881df293814U, 0x4e41c0afe0ce8fbU,
  0xf9b4051bf40153a8U, 0x81ee0bfefff31a15U, 0x59057f6cf5a50d1dU, 0x7541a0d1631c3ceU,
  0x1d1cec7fbeb9be15U, 0xfa2c061432c51bfdU, 0xf481fe15de031cc2U, 0xe8f322390af5ea0cU,
  0xe8f039e2e4060226U, 0xeb245cf42529317fU, 0xfb810604f9ede2deU, 0xcd230c012101fb07U,
  0xd4d1ff628ebf27fU, 0xb108f8500f01f9cbU, 0xfc81f21fef0106d4U, 0xcd2c07fa41f32ceeU,
  0x1629f01e81fae1e0U, 0x2d1b49e40ce607bcU, 0x10ce31f965f753fdU, 0x7fb0eacdda0a40e6U,
  0x200c8116eaebeceeU, 0xf9f609fc0e281109U, 0xf141f3f5080e197fU, 0xeb0d003902f0e814U,
  0x530181d5fc0114eeU, 0x5fc32191afe2afeU, 0x950ab6f8028111f1U, 0x7e2190b14e3080dU,
  0xe21b269ccd70dcfeU, 0x1acaeff5ee81270aU, 0x6e80c05f3e6312aU, 0x1a300581faec180bU,
  0xfb01d69e9145e811U, 0xef401c3d5a812c1aU, 0xf0fa1da3e6f1bbe9U, 0x9a7ffb63d124bf0eU,
  0x13aa37d559c712f1U, 0xf80a8111e00cde38U, 0xfe53fae43706080dU, 0x7f7801da2ef7dd16U,
  0xfa811412defa1eeeU, 0xa2f9130123e6f827U, 0x2212207843caf31bU, 0x45c67fb98e46e3b6U,
  0x3291e1081c10bffU, 0xf9f35eda2cc0a100U, 0xf27ff7f41339ed2eU, 0xbd2cee49b3fff8f5U,
  0xf6e330c9575a1bfaU, 0xcd5a2d7f489405ccU, 0xdfcf1ca5c619452fU, 0x23cefd2c8121d1f8U,
  0x159afb7fc0d1ea2fU, 0x90c5097ebde54ae5U, 0x6d8c6480c4af151U, 0xd24a4b81fcf53fd4U,
  0x630f81a0d86e1ef5U, 0xf704211b0b3317f0U, 0x762005e30f7f0a12U, 0xfcf8080edcf50d2bU,
  0xe813f17fbd110bf4U, 0x41030ddf46d23cd9U, 0x810c3d5112e7e4fbU, 0x80ee1fbfafaf8e7U,
  0x7fe9d5bf4e0dcbU, 0xfd21c80af334f7caU, 0xd43b0384815b351dU, 0xfbc629ed0528a4f2U,
  0x810524080df7f00cU, 0x1a05000bf1fb0bc9U, 0xfb81fc06aa0110e7U, 0xfee6f2e89e01161bU,
  0xe6199821fdc8f4d8U, 0xc594d4acedf3bf7fU, 0x74f90800087f090fU, 0x2a080c12e80f1fe7U,
  0xee7f1af2571deb39U, 0xcd1f034b170afef8U, 0xd81381e2ff0cf1eeU, 0xfdd61cf5eaf83503U,
  0xbb8de18e9fbf57fU, 0x18a5edf9020a0606U, 0xefeffaebfdeee881U, 0x320406bbf115f3fcU,
  0xcef26bb7f0005d3U, 0xeaade7bfac690d33U, 0xdff0fcfd3706ea3dU, 0x3bab200b7f1bf0e6U,
  0x7ff6e2d2f34c0bfeU, 0xf80c170408fb021aU, 0x2c03060bf881f9faU, 0xdddce8db11bbbf62U,
  0xeda2ed03e5dded4fU, 0x1bf5e481e112f51dU, 0xffc5c32a150f07adU, 0x7ffad3b30ff2f0caU,
  0xf5e5f4ff7f2011f9U, 0x4cdfd0e32f10150cU, 0xe51d082838127fe0U, 0x713c1cd925d3151aU,
  0xf297e3d33420ef6eU, 0xb66bc7cea02e37fU, 0xb9f68a0b1881edf3U, 0x27262e1aef55dfU,
  0xc911c4d9f27f11f1U, 0xf7daf4f1e71e0412U, 0x67f04f64719e740U, 0xd63e11692d03efcdU,
  0x2125110ec78edf2bU, 0x7fb1e4dac117d6feU, 0xfc38f6fb320913ecU, 0x7f1af9b737fe0006U,
  0xf80c2d02edfbf908U, 0xc005e1717252f7fU, 0x20e0097f42bac108U, 0x1008ce0cb5fb57f6U,
  0x4e067f302335030bU, 0x180ce7fcfbe6c511U, 0x216e11b3201dfeaU, 0x7ffcdf8871fbeb00U,
  0xde231bb481293525U, 0xcb248ec15eda1f7U, 0x2a56f4669a81bc10U, 0x38ef49f401a4fdffU,
  0xe81f5e7330e0863U, 0x54e2db20d4f2e1dbU, 0x3a1c0f468185edf0U, 0x16a5afc1ba202015U,
  0x7ff5cacffb181007U, 0xef01130c080afb18U, 0xeb8107f9fd1cfcccU, 0xd05618dc72e51901U,
  0x1fea28d27f02dedaU, 0x21c2f9faa30a2fddU, 0xdac948f6cbfaf868U, 0xad37f2a6e304577U,
  0xa29f3fc7f0216b1U, 0xc60debeed6d5fbe2U, 0x2ab21a356dd79d15U, 0x7fe6a8db903956ecU,
  0xfdd50ff723f905f1U, 0xe9000acd7f0ef705U, 0x9edf445f5d41919U, 0xe656291b327fb8ebU,
  0x12f28190f4dc3c00U, 0xf7ff3f1b19f746edU, 0xf483deeef1ea2e73U, 0xe51e81024bc4aa85U,
  0xfe7ff7e8291d0f15U, 0xe4fc0427e3fef3eeU, 0xbd7c81019fa0e2eU, 0xf0fc9e0409d3c981U,
  0x810d81ef14c1fce9U, 0xe9ec0a0af7023df9U, 0xe80730feee811605U, 0x10f7f30319e9e004U,
  0x22fcc31b160d16ecU, 0x12b596e0d2e1d381U, 0xb0f5812c268ae6f6U, 0xf100f1d001754c4U,
  0x49fa2182f7872124U, 0x3e3e32492ad47f9dU, 0x57057f0bea691f0aU, 0xf9f6e2dcf3f4a53bU,
  0xfce8f9eac20d11f4U, 0xfd17f61b81030406U, 0x6c000000ee6U, 0xfffff8df00001b73U,
  0x22160000254eU, 0x14e40000028cU, 0x224a00000a21U, 0x52f8fffffa9dU,
  0xfffff63800000922U, 0x261700000751U, 0x13d00000473U, 0x1b6cfffff103U,
  0x344900007e4dU, 0xd5600003935U, 0xac200008cd2U, 0x54700002fd7U,
  0xfffff6700000092eU, 0x32ffffffb73U, 0x5342fffff49cU, 0xbb400001536U,
  0xfffff1e300001e83U, 0x2d1000024bbU, 0x1fca0000067cU, 0x3f260000195eU,
  0x335400001599U, 0x28b00006f36U, 0x112900005575U, 0x1f01000005ddU,
  0xb9970000064cU, 0x1c6000000ac1U, 0x67900001538U, 0xe4400000912U,
  0x61f00002710U, 0xfffffad00000132dU, 0xb2200001e99U, 0x2b5100001b4bU,
  0x3cdb00003259U, 0xce100001b54U, 0x9ada00001a4cU, 0x308600002403U,
  0x1d5500001c84U, 0x1d6e00004574U, 0x20fc00002401U, 0xfffff25f000035abU,
  0x191bfffffd3dU, 0x434bfffff722U, 0x19300000086eU, 0x9470000039bU,
  0xdf00000a63U, 0x137400002d98U, 0x1f003b01f930073aU, 0x810108c302811ccfU,
  0x2010000e2a1b20f2U, 0xa0705ccf803290bU, 0xa9fc12f203fe0afcU, 0xcefdde0e1c36e7e2U,
  0xec0d0131fe1e0d0eU, 0x35f0f6ec09fc0af3U, 0x3cfa0008f8edf402U, 0xf8100bf1ff0fde03U,
  0xe1d8f7fa0bf9d97fU, 0x1bfd28d103c226a3U, 0xc112781157f817fU, 0x69160ebefafe7fd2U,
  0x14f4ec7fd53fe7f7U, 0xcff108114fa7fddU, 0xf0c02ee15dfebc8U, 0xb816ec65e90d922cU,
  0xbc107f25813af8e7U, 0x1c81818111065fdcU, 0x7ffd1cf81e94c953U, 0xfbc1faafd41bf681U,
  0x2c1ef811eced2458U, 0xf94c28ccc981cb19U, 0xf9fdf1efff101103U, 0x1e09fad7fd8617e3U,
  0xf2f4f902f10709f2U, 0x711f203f718090fU, 0xaced16240af90608U, 0xe1fc26d2f9d049ffU,
  0x1808e623022f0f10U, 0xeb10fbfcfbbdf9U, 0xf8fbf208f909edf9U, 0xe20efbf6160add0fU,
  0xd4ca00fd07150810U, 0xe5f726e0f7e0ee7fU, 0xe0e7fb001db05edU, 0x621c0f0af501e62cU,
  0x7f72eeea7f34dde4U, 0xce41a8b170910e1U, 0x952214d80fd2e8fdU, 0x20e5fdb77f29da6cU,
  0x7ff610eaa1f3054cU, 0x7f42742e0bd80781U, 0x4d620ecb257d305U, 0xecb7aa15db12052bU,
  0x2a0c891a12e9220bU, 0x7ffafb15d1898e25U, 0x817fb1127fa2efdfU, 0xb7817f7f811b907fU,
  0xd68181b1e181817fU, 0x7f817fac7f81cd81U, 0xb57f81967f7f9c81U, 0x7f81817f82817f7fU,
  0x9681e381eb818181U, 0x5a1e461b7f7f7f9fU, 0xe28a7f817fe4817fU, 0x817f817f81817f0aU,
  0x7f7f197f7f9c7fd7U, 0xdb79817f7f039717U, 0xe08b834fae503dfU, 0xe92208cdf4c0ede4U,
  0xc111f3f0b243ffcaU, 0x116f5e70e45d4d1U, 0xa8151e7f0eddf0fdU, 0xb8e604600e0ee2aaU,
  0xe20e00247633075fU, 0x524046c512ef74a3U, 0x8e519efbfb5ec5eU, 0xeecafa01f5170351U,
  0xd90a7ffffd7f09b5U, 0xa37f0bd6ddb11dcfU, 0x9030b23faf018eaU, 0x2715f91502c7fafcU,
  0x2817f609100a0ef6U, 0x60e010aeef9d616U, 0xa0d80e110cf00fffU, 0x241b299016c232ebU,
  0x3c10eafc15060c12U, 0xf1e40103f0dea652U, 0xcb27ed07fd07f69fU, 0xe20e27031c14cf06U,
  0xe0d5caf904f508f6U, 0xcae0d0bf5b8e366U, 0x2606a05e10fd11b7U, 0xda0c0d15fdc5000aU,
  0xa4f3e9dcda26f4c7U, 0x221507130fe3c6cdU, 0x239627d429bd7fcfU, 0x206bf8d5ef0dffa5U,
  0x171710e976fe09e9U, 0xf595c0540fcc0953U, 0xbb7f16fc097fded7U, 0xe8b869beec2811bfU,
  0xf704120c06e015e2U, 0xffdaf00fe0c37fc7U, 0x8030c02fef21007U, 0xf50cf5c304b9f1d8U,
  0xf3f1f60b040a1cfeU, 0x1006fa08f52ff81bU, 0x81ca071b0cf10702U, 0xd718db11f73ed514U,
  0xf20be90806250a0dU, 0x18091526fff11057U, 0xe918f80afe05fd17U, 0xe9120506eb14cf03U,
  0xb5eb28fb0120ddddU, 0xf8142ad90add25c7U, 0xfffffe15fffffdeeU, 0xfffff5a2fffffdd2U,
  0x21600000695U, 0xfffffeefffffd274U, 0xffffff230000481eU, 0x36ad00008310U,
  0xffffd5de00005891U, 0x134ffffff21U, 0x46b2000036daU, 0x40200002bb0U,
  0x420bfffff969U, 0x500000345U, 0xfffffe3900005a3bU, 0xfffff0910000098dU,
  0xffffedbb00007c08U, 0xffffb7ad00003c81U, 0xffffff3a0000db65U, 0xffffa4c7ffffffb9U,
  0x3cf0ffffff5aU, 0x5d2500000419U, 0xfffffef1ffffe4ccU, 0xfffffcc60000071fU,
  0x2790ffffec87U, 0x36b00000022aU, 0x137ffffe4b7U, 0xfffff6e700003e3eU,
  0xffffd47d00000011U, 0xbc00003f84U, 0xffffe38400001547U, 0xffffe39900000224U,
  0x75b200000355U, 0xffffd30b00004fdeU, 0x6a9dffffd44cU, 0x4efffffd35U,
  0xffffb41000003fa3U, 0xfffffa4bfffffff7U, 0xffffecc800006f8fU, 0x510b000042caU,
  0x1f0ffffffd9fU, 0x551d0000589aU, 0xffffc414fffff161U, 0xffffec430000002cU,
  0xfffff963ffffed18U, 0x42300003b32U, 0x184d00005338U, 0xffffff6900008e91U,
  0x293c0000271dU, 0xffffff3dffffac26U, 0x612e9022dd203ecU, 0x2dfe07e013f5cefdU,
  0xea022ffafafde8c2U, 0xf3e4fad00af3dcf1U, 0xcd111ffc0800e7bcU, 0xfdec3e01f9fb0e10U,
  0xd5547ff3e903102dU, 0x1fd2008f0fbededU, 0xe0d6f02b0cea15eaU, 0x3189e1fc0cd513dbU,
  0xb81c09020dfbf8feU, 0x18faf6effa01e60cU, 0xe73023fdfc00f6f1U, 0x7ed40f42605fe08U,
  0x387ffccc67f6e702U, 0x90012e7123fd514U, 0xcb12103aede5b3b5U, 0x4031f213f06ebf3U,
  0x19e8bbce0c1ded17U, 0xf1b5bbfd230d0b25U, 0xd9023f6f32fcee04U, 0x527e8e924fb04f8U,
  0xe706420b06791f2aU, 0x6225e50de2d6f42dU, 0x22d7f13a1e0f231dU, 0x1103ec16d4001103U,
  0x1518f82d1f47fbfcU, 0x3925e90983c541e7U, 0xa8392a1029132917U, 0xb1071f0dfa020d0dU,
  0xff28dc1219c4eb2cU, 0x1ac4f448d2071432U, 0x2420163a1822fa2bU, 0x1df7161ef1061681U,
  0xf5fb2fed0015164cU, 0x4fec25c2e113fb79U, 0xf332170814c70916U, 0xf1f9baf3d20a36f0U,
  0xf61c641a09170be0U, 0xfb12e80b220709e8U, 0xf6b9ff02eb04081dU, 0xfbbee5fad80d0405U,
  0x2bf9f4e6e9101101U, 0xfbf96af9e0e818f0U, 0xff230ffeeff014f6U, 0xb72c00e0ed8e81cbU,
  0x3ffd0cfd2f2712ffU, 0xff14f7030cf60e03U, 0x16c411e5c8d4ff22U, 0xfdf7e1e6f7b4b37fU,
  0x283720f628101d12U, 0x1a0cc5110024efe8U, 0x46c1e51b1016c9ceU, 0x17b0daea39130ffcU,
  0xeb201839f2ef15d5U, 0xf24401c8dbfa18b5U, 0xc3cbe3e541cf1518U, 0xf91dc2cddb352e7bU,
  0xd5d3ce920f2b9U, 0xf7c64699280fe493U, 0x2cbf3f8020ef6efU, 0x4e20eaf11ed1a7fU,
  0xce03fc0201f5e0f5U, 0xeff5ecf91af21203U, 0xfffafffefd08f3U, 0x27110ff70aeaeefeU,
  0x19f6fd03efeb21faU, 0xf5f8f21917042f04U, 0x13f00efb172550U, 0xeef402060bd60c04U,
  0xf9f211270905eaffU, 0xfdce34a9fbf6ed04U, 0xfefdea01ea06ec02U, 0xd4f7c0faac060514U,
  0xf8063925041ffdadU, 0xebe528e9ed13fed2U, 0xf30816ef2801152dU, 0x41be6020beaebfaU,
  0x612bd10c106f6f6U, 0x5ebdb19bf0b0705U, 0xffef0a0013f2e808U, 0x41f50106454235f3U,
  0x7fe0010016031900U, 0xf80901f6f1fcf00dU, 0xf92e08030318e2f7U, 0xe20b6dfc0114f7U,
  0xf06e6fb00f3060aU, 0xbeef0cfa26f1f4ffU, 0xf6f009ece8fc09feU, 0x8106e842fcdf0efbU,
  0x7ddfc08068de6f5U, 0xf5f6fdfd0b22a004U, 0xf7061207f3003d46U, 0xe2e613fefa08050dU,
  0x603e7010800fc05U, 0xeac5f7a306b911fcU, 0x1becd29005c0b6efU, 0x140d1ff4f3dd0cU,
  0xe508ead90cee811dU, 0xc5faf9f5eb1ed31aU, 0xf1f11f18dcd3c01bU, 0x8b93d4cf6bec5eaU,
  0x20184025b105cf26U, 0x2e0f1728254be8ffU, 0xede393f8fd3cb729U, 0x1c36d1e44ef2def6U,
  0xbab6f1e8ff23bad6U, 0x22f304f1c2babd1bU, 0xdf1f26dfbcf12bd1U, 0x1418fa7ff1620183U,
  0x1841011a31f4dadeU, 0xe093bfdd304f6deU, 0x9eb0e1f38071ae6U, 0xe9f5e94c49f30200U,
  0x3a3b11e3eb2015f3U, 0xf4f5031cdfe027d3U, 0xed03a902501d08e8U, 0xdc7dc04010a062cU,
  0xe2cb28e20137bcdbU, 0x2870d716043ef1eeU, 0x1824faf813101659U, 0xfbc5e9ed00041a6eU,
  0x11cdff2eddf7d5e1U, 0x2ff2c90501ef2c0aU, 0xfd080005ea0d1e13U, 0xc320806cff20ee8U,
  0x1bdffffbeae7f301U, 0x14f9ca270ce224faU, 0x4311c7f2fd300f0eU, 0x2581182724d3eef7U,
  0xdadb043bf5fabef4U, 0xe2fa1622000cef11U, 0xdb0bedf47ffefd02U, 0x27f2c11428e9c7e6U,
  0xef9e6f006fbcaeeU, 0x923f271e0ffdfff2U, 0xd099c72307ef0dbfU, 0xfcf0072012ff12faU,
  0x14cc30cfe7f8100fU, 0xf826c80522ebf6b9U, 0xf4c4f556fd15220aU, 0x171fe7fc097b4c0eU,
  0xf916f70178f3e001U, 0xf810f0e504f2f018U, 0xcc2d08eb1cda1df6U, 0x6d9b5123808dbe8U,
  0xf7e3fad1dd7ff202U, 0x40e6317e12d810cdU, 0xbf6e4f640d8cdeaU, 0xefd000fde5f0fcafU,
  0x1237e6c0ece91707U, 0x544aeef9eed901f8U, 0xfef7f832d2ef3bf8U, 0xc3aeedf065b0c22U,
  0x35effbffb9eff1f7U, 0xe117f2e3e416f026U, 0xd7378ece10142b13U, 0xfd2823331fbc1fb5U,
  0xf3fe16d3ef09844dU, 0xd301f0ea3ff4e0edU, 0x1905e513d27e0eceU, 0xc1105148fbcc0118U,
  0x26022d1dbcd80fe4U, 0xb6ec2a4700022a00U, 0x3fda7f5f54e1d08U, 0x8175f4d920520021U,
  0xefb4e6e906e4c4ccU, 0xfd3fd843df24d0ffU, 0x604efdcb4bb0dedU, 0xb4e43ce8daddb2f2U,
  0xe4cfedc10a81f3fbU, 0xd6c5f88d79d6d044U, 0x16f2d0e2dbe7da6aU, 0x5e017d5e4e2cf2aU,
  0xd8f2b6d8e8cc4d15U, 0x183a00d64ccefa0dU, 0xc0a6079b07e863f8U, 0x1e14e6fa2c28f506U,
  0xd804e94709d32adcU, 0xfae7f7d5e00fd9e8U, 0xf20ef4c349d709e5U, 0x10f1cbfed327cd06U,
  0xf514e314ed491ffcU, 0x31510d1dfb0fee18U, 0x1429171a0df97fU, 0xfff112f40cfe02d6U,
  0xdb9258ed0bf70f38U, 0xf81521c9f5faf9ecU, 0xe5e6e0ef1cee2101U, 0x1904e710fcf10b14U,
  0xe8f3f4ffe1fbe5f4U, 0xaf40806fa15ef08U, 0x39bb000073d7U, 0x2e6ffffd248U,
  0x40cbffffab68U, 0x6a3affffd600U, 0xffffeff100001aa3U, 0x4064000060e8U,
  0x2a1cffff9abcU, 0xffff598e00007dd3U, 0x2484349392b12407U, 0x967f25d3282cb5e4U,
  0xff4fece97f48de67U, 0x34e307246d14d5f7U, 0xe010d21648401a81U, 0x545a03cc58d2f638U,
  0x713e00281f9f4ffU, 0xe0520d2064d7fab9U, 0xfc188137e910f4edU, 0xecd601d9f13cda3bU,
  0x81076f082b1200ecU, 0x6d7ceefded9dc10U, 0xc2071779d573d2b2U, 0x8ef6aa9e16abb07fU,
  0xcfc19d6253f11c0U, 0xbf81e2da64ed59d7U, 0xec0842dbfd250940U, 0xe4e94c291f302f7fU,
  0xaefe4a57f97fb4f4U, 0xe70acad3f224f506U, 0x81eb65171e01f800U, 0x914e0fdf011e5eaU,
  0x4c5e9057f09050cU, 0xcd162011ebfbf804U, 0xc00dc6c12d32081U, 0x5339dc9d7a0e0829U,
  0x25f081f0fcf80df0U, 0xd50f241121fe161bU, 0x222fffd1602fa81U, 0x1d29031f1204fd03U,
  0xe8060b2069f3cffdU, 0x2a8160ae8ff81bc5U, 0xc0cffc9e0100441U, 0xeff87fb5ede48fe0U,
  0x7f1fe3370412c7f6U, 0xfca3d6d6e6bcc96cU, 0xf362ad2d23a91a2bU, 0x5dc1ef0c81b9b9e7U,
  0x3810bf94f2403c5U, 0xbaf7f3f6edf8ffd0U, 0xe2de39e82f16c2f2U, 0xfd18ea0800813c17U,
  0xc9428cebfd7ff13U, 0x816b28f22a04e2e1U, 0x4812dee35d52ae9U, 0xe57707104117090aU,
  0xfd1264a2b9ffb7f7U, 0xbd9d43fea17f2e3dU, 0x7fef033c0c50f5f0U, 0x13ed0610f4cbf839U,
  0xf72ef4265aee1203U, 0x5b301acc7fe3ed01U, 0xf92ad70806f3125cU, 0x7f0aeff11fecc9f3U,
  0xfecbf31430ebfaf9U, 0x93aedf17ffa04f0U, 0x414f2e70ef5d1ddU, 0x7f081c090704c8f7U,
  0xfdf2090e00000348U, 0x81eb020c0bf819e0U, 0xa60981e505ef2413U, 0x1f1e6641033737a5U,
  0xe43aeced594050faU, 0x7f1edae541e6da34U, 0xdc2bc210fae0eaf4U, 0xdfa1c5b2da06b07fU,
  0xf33dd323f7eedcecU, 0xd9abcccfdae7e07fU, 0x48c681ec1d0c06f4U, 0xd14863f000ee0cfaU,
  0x1b8127d4b7e710e6U, 0xa106f4e3e802c40fU, 0x8108a8c0f2a31ee9U, 0xdbacfce2fa0cc82dU,
  0x23ceafb81fb0811U, 0x1d021d0d1cf9e6ecU, 0x131a15b2d61cb37fU, 0xc1ac0b40d833dfbfU,
  0x1fed03e67f04ff08U, 0x19eddc12cb1e28fdU, 0x34402fc81ee1017U, 0x12fee8f42d160ee5U,
  0xc35759d30a601fc4U, 0x1ced6be8ee2e607fU, 0x5a309dd19e32b02U, 0xdd2823307fefbaf2U,
  0xfa8119d7bbed44a0U, 0xba6b210218f2cc0eU, 0x4cccb0517211330U, 0xeffc9ae10ac6cd81U,
  0x4cf14b5b90500e2U, 0x638fa498103cc01U, 0x170c1de4c0e80efbU, 0x90ee112581f7fff4U,
  0x29d7e7e77fbc4b15U, 0x2efec29ca79c716U, 0xabfec087f09d230U, 0x5c5e8e5a6f5230cU,
  0xfb137f31f903f5f7U, 0xfe27e60903fcd11bU, 0x4f3efc81d2d0585fU, 0x3a8df2f0cf50e8d8U,
  0x27ff12734f7f127U, 0xef0a2a4bf1dde8e9U, 0x22ed021405ba1918U, 0xf9e3137f49dfc013U,
  0x37f1c52d20f23519U, 0xf6dd19e9e57fb901U, 0xfbc1feecfdce160U, 0x8b810638ed21faddU,
  0xfe3aef11410b1686U, 0x7f37fec5f8fd1b04U, 0xf1141e81d4490403U, 0x8af8ed5a9a15bbf5U,
  0x9f307f55ec6eda2fU, 0x4edbd6d9c606c1ffU, 0x11cf1c117f0e0d03U, 0xdef1408c726ed01U,
  0x4d0bf656b50f35U, 0xb0522a7f15d9bbe6U, 0xdbea1304113aee7fU, 0xc6cd03c577102334U,
  0xea0324f1f618f047U, 0x81d3393b0c0e0f27U, 0xa857d100f2c805fdU, 0xff81e7d4c8e3cb4bU,
  0x2b31093ddaa4c9c4U, 0x1a7f337637ccb5d0U, 0xfba00328fef5d670U, 0xbba0f60b7f0c1beeU,
  0x29d3a3f17ff2fbf5U, 0xdaff0e0ad9002d10U, 0x7f2ef520b812fe0dU, 0xf70e04f41bf7f40eU,
  0x67f042141f30c34U, 0x98f80def1bf315e2U, 0x5047f42f1e52107U, 0xa2430033af9d3bcU,
  0x61251f8dbf5e726U, 0x14a96d22024c5b7fU, 0x137ff303bfaf081eU, 0x32f730081af6b704U,
  0x1ec4ecc8f21cbeeeU, 0xc9a198ea9f12d481U, 0xa81ee23dbbcf4caU, 0xbd2d2e1401ecc620U,
  0x11d5d8f57fd42013U, 0xd20932eaf220ecf2U, 0xf97ffee9352b1ef3U, 0xd147eab5e6ee1400U,
  0x63bf8f781f901fbU, 0x19f601f9291e08dfU, 0x35ef0281f90612U, 0x18f91b032fffddeaU,
  0x47033c99c6f1edU, 0xdf307f5a36f22044U, 0xdad27fef5af1f6f9U, 0x11bcdf6e0d01101U,
  0x29bebe0a7fcb0819U, 0xf8151e3cec140938U, 0x7f002d692269e62cU, 0x160ee1fc21b7cf5dU,
  0xe9c7df060c42107fU, 0xadb5b7bf5fdcf5c4U, 0x1a120ff205f5f013U, 0xf01181011b575efaU,
  0xf51a070422203fc4U, 0x7f34f3bd17e7150eU, 0x2e50f80016d194deU, 0xb7d4076f81fdf2e5U,
  0x627191e1de0341fU, 0x7f167367c52404b0U, 0xffd114f2ee290efcU, 0xeedbf41c81ff1f08U,
  0xea6b14b0e06f559U, 0xf7f8811306cce985U, 0xe2d681eb4cff1de7U, 0xe8db2d08eb120c21U,
  0x111b26f8d22dea1bU, 0x8a21037810b1ed2U, 0xec43ee23460b0de9U, 0x391314d37ff3ee13U,
  0xbef781485725d7d6U, 0xa648fb3038caf178U, 0x607ea22bf0deaeeU, 0x28d77fe616c5e7e2U,
  0xff29cdfd81f606f8U, 0xf3142bfa4ef710e4U, 0xc6397f418e32deb6U, 0xf4ffdfd91ca60104U,
  0x7ffb141df20ffd08U, 0xdbfe05ee19dabf26U, 0x420000006555U, 0x363200001c37U,
  0x205900000cbbU, 0x3c7000001ffU, 0x2ecafffffdfeU, 0x3444fffffde4U,
  0x1830ffffeefeU, 0x2198fffff8e6U, 0xd5a00001bdeU, 0x2831000021afU,
  0x4232fffff6b8U, 0x1b7a000041d7U, 0x1c88000016cfU, 0x4c99000012a5U,
  0xfffff7da00001734U, 0xfffffd8bffffff7cU, 0x164400001649U, 0x2aee000004daU,
  0x181000000532U, 0x1c330000728cU, 0x9e700001106U, 0xfffffff000003ffdU,
  0x86c00000106U, 0xfffff09400001a9aU, 0x2d9600001911U, 0x145500000009U,
  0x7db00000587U, 0x25360000187aU, 0x38000000b96U, 0x34c6fffff3f7U,
  0x5dd100002b38U, 0x1ff300001791U, 0x19e2fffff426U, 0x2bb7fffffe9bU,
  0x97e00000fd8U, 0x104f00000de7U, 0xf210000174bU, 0x14b5000020a4U,
  0x173700001e78U, 0x1bd2000012e8U, 0x3fd80000132fU, 0x17a000000209U,
  0x18ec00000393U, 0xfce00002102U, 0xfdd000022a3U, 0x4d300001d16U,
  0x1c3bfffffe7cU, 0xfffffc6c000009b0U, 0x52e34f578f1b41aU, 0x2901e50ffd01281U,
  0xc4f90924592b32f5U, 0x2f2e101308586332U, 0x2ced0229caab0bedU, 0x181ca079f428811cU,
  0x6e05e502fbd58915U, 0xe7343e2bf49a4dd3U, 0xd6fe93e70b81e61aU, 0xd2ea2dff1601f1e1U,
  0xe19251c7f7b4a8faU, 0x1aac271203e1a82bU, 0x330de4f42d7f7ff8U, 0xfe84326ce4812233U,
  0xd4a95d3277814006U, 0x3237284c007f1ccbU, 0xdffae5352186810aU, 0x28e548d00c93967fU,
  0xaba1bd2bcb818104U, 0x7f5eeee6e8c87f7fU, 0x21d690f9d89d7fe4U, 0x818e81ebef05fda4U,
  0x880877f5c886f631U, 0x3ca29143054be4deU, 0xf831e7ebebdbedf1U, 0xfbcd320e19f0174bU,
  0x2e3d040beeffef03U, 0x2f0d0a0cee11d9e7U, 0xd419f94e13d2e9e8U, 0x1925a286f81e4107U,
  0xf718f2f406e912e8U, 0x1eecc3cdf9a714d1U, 0x43f9bfe20eb03532U, 0x1717f917fcfbf9dbU,
  0xc65ceddf07de3007U, 0x40e30200fb37e4ecU, 0x7f137fe63683256dU, 0x7f81151df9c0181eU,
  0x816ff63a32527f38U, 0x813639165aa1197fU, 0xea81ed0f8aa361f2U, 0x2429ecd61086ceecU,
  0x75d28127ec83b707U, 0x927ffae5e4e64f9bU, 0x81df81eee8a5940fU, 0x937f84a87f1f06f3U,
  0x5b7f59711981fcb8U, 0x41857f201be1817fU, 0x4981967f8176ef81U, 0xd0b381e094be7fcdU,
  0x1f81817f814edb7fU, 0xac7f7f81812381c7U, 0x7fdca081fadb1a7fU, 0x81817f8181a5dea8U,
  0x8181b87f7f105581U, 0xe1857f7f7f7f366cU, 0x2a7fab8d81cfc37fU, 0x6306e8dc987f9b6dU,
  0x5ef4d67f7fa57f81U, 0x97d6dd7f7f81d2adU, 0x3714f9d6cc97ff0dU, 0xb6ab162b7fc61ffdU,
  0x6ebe0607b6b6c811U, 0xa1070af82533e4d6U, 0xff7a01157f88d7dbU, 0x321bbc0e2d7fe001U,
  0xa0289b0ad8e55051U, 0x5ad502e5c4a616b1U, 0x38cac40aeea23cefU, 0x56b65b7fef14f895U,
  0xdd908177f4badceeU, 0x1d81d3fd090ba2deU, 0xfb4810e6f80a3108U, 0x10b83107f8cc0f3fU,
  0xe43eff06f7d4ee03U, 0x3b191e0b03c6cf17U, 0xb2e60952dfdd0bf6U, 0x2c0da38ef7103aedU,
  0x75170302fed006ecU, 0x1bf6c1d3f28a0ad1U, 0xe5f28f260bc91527U, 0x10cd01fb18fbfeb0U,
  0x7fdf0908eedb3218U, 0x7fbef00503348814U, 0x271edecac77f93f4U, 0xf2bb0e7fe5ac29f3U,
  0x2331271ac454910eU, 0x42e8f017f68a11f3U, 0x137f2511811ac8U, 0x38de4b0c0b2affdfU,
  0x94b2d911d39b624cU, 0x97ccfbf1dd98de6fU, 0xfdbbd37fe8b5c5e7U, 0x476f5be6e5167f81U,
  0x2103a1d4c8c1e225U, 0x409432070607c5ecU, 0x933ecf1300309fbU, 0xf8f412d41ef402aaU,
  0x39fcf61129d0e303U, 0x2a0b0900f6e742f7U, 0x1309041110ea09e1U, 0x6129869fd33e2f9U,
  0xf0200af406081600U, 0x10f9312b009df8f0U, 0x302d50206f7ee17U, 0xee02171dfcfbfdbcU,
  0x6170b0103eedcfbU, 0x15eff7f2ffefeef0U, 0xfffffc33000007c6U, 0xffffffe4ffffbb77U,
  0x4f1fffffd6eU, 0xffffd6df000010cfU, 0xffffc79900006097U, 0xfffffd300000243fU,
  0x143b00000d32U, 0xfffffff70000bb34U, 0x86ffffc71cU, 0xfffffddd00000687U,
  0x596ffffef75U, 0xfffff62a00000592U, 0xffffff2afffffd2bU, 0xc48fffff437U,
  0xfffff393000001d1U, 0x50a6ffffdd73U, 0xffffffa3fffff9d2U, 0xffffff8e000048c7U,
  0xffffffb600001816U, 0xad00000a38U, 0x87f9000000dbU, 0x24d200000caaU,
  0x2fe20000b879U, 0x32710000096cU, 0x289fffffe9cU, 0xfffffc4700010bc5U,
  0x51edffffeb7aU, 0x267100003ecfU, 0xffffe276000037abU, 0x43ad00008192U,
  0xffffd33fffffcf1cU, 0xfffff00600000069U, 0x2fb0000059bU, 0x3eac00004e74U,
  0x776100000548U, 0xfffff7ce00004ec4U, 0xa50000bdddU, 0xfffffff8ffffca52U,
  0x641ffffff48U, 0xfffffeccfffffa7eU, 0xffffd253000012beU, 0xfffff54c00006e99U,
  0xfffffe08ffffdd8dU, 0xffffdb82ffffffd0U, 0x42c30000039eU, 0xffffe390ffffff06U,
  0xffffffccffffd1e5U, 0xfffff4910000970fU, 0xe7e5e0dfcac17010U, 0x1d2509f3cc0e1fbcU,
  0xfdfaec28ca01ebb9U, 0xe80e49af03c800efU, 0x45c7d5db611002dfU, 0x3b0e3c0261226c7U,
  0xb9070d1b4f9ae425U, 0x22fd377825da22feU, 0x1b3c9ebfc11d17fU, 0xdb1917b6da25e584U,
  0xd2e00f299db6ec5U, 0x2c25daee32f404e5U, 0xef2238edff3c1f0eU, 0x1816ec30053ba9U,
  0x3d01ce2611f50c01U, 0x35192bcff1362828U, 0x5f7f30e0e1b0bf4U, 0xf31deac496e3c8deU,
  0x2d2bf67fcfd60e00U, 0x1106110c9d02f69eU, 0x40a017da31f6e82aU, 0xe4fe132929cddcffU,
  0xc0c315df5120dfcU, 0xfa0e10f2f52bfc21U, 0xecf41f1e02e21616U, 0x3e9f1fd0cd99e81U,
  0x15d3f0dfe9c61fecU, 0x7fe22807d9f91d08U, 0xf9ca10cf2dc6f7c6U, 0x22dd1a705d5e90fU,
  0xf38e5e4ef530902U, 0xf4d6ff13390af2aaU, 0x7f0171bdefb0b2aU, 0xf171e1112d71909U,
  0x231cf21407052507U, 0x1dc30de0fa1fed28U, 0x3a123ef937340d03U, 0x2e074cd8d6f7e6e2U,
  0x3fdee634f8ec1cfbU, 0xc60702ec25ef0701U, 0xcec147023c33eb1aU, 0xe70aa3ecbcece2fcU,
  0x405103fc140616f5U, 0x4f4f1fe7f78fdddU, 0xdd220b132fd6f1U, 0xd9e45152e546d8d5U,
  0x60d29c91b4cfcf4U, 0xf1e3e3e304ed2913U, 0x643571a1e01e21aU, 0x2414c6e71e03bb7fU,
  0x2827fe1cf61b29ffU, 0x92c2b5c855dcd336U, 0xfece4b50409ec16U, 0x39d040503a4f2dd2U,
  0xd4cad9991a0ce110U, 0xe801c4e6e0610924U, 0x1913f7c6ec12e5a4U, 0x6f5f3402909d624U,
  0xbeda21caff12f3d9U, 0x26b41e2b1cca3823U, 0xf946f5b0edfbf9f8U, 0x1404810e081cea0fU,
  0xe1190a32ea1cf100U, 0x104fefbf41af504U, 0x30061cdefbf80e0bU, 0x75020304fdefd217U,
  0xfdf1340bfa25af02U, 0x1be61e04eb2c5dfbU, 0xde5ea0f04fe2409U, 0xfa02ee1a0af70c05U,
  0x190af50708ede807U, 0x9e210f1f714f6e4U, 0xe1f20b0cec3de9f8U, 0xf9cbe36dfde50500U,
  0xfa25f113b7fd0af5U, 0xafea060dd1f0fa0cU, 0xebbf0d0151e61c18U, 0x613e409defbc62cU,
  0x172000094294e2d5U, 0x815050dfb00fbe9U, 0x207f0dfc04e82f27U, 0x10f1f30c27f402c0U,
  0x19e8e8fc31fdeb26U, 0xf2f31ff73e1cc0feU, 0xf505eafe0a13fbf8U, 0xfc5125f7d93213U,
  0xfaf8fe04fdf948fdU, 0xf2d9f707efff04f8U, 0xf31d1181e5130cbeU, 0x1303fd10d61311fdU,
  0x11f10810f2d810f7U, 0x1c30aea161fed0fU, 0xf6c9fde828bde507U, 0xf81200edfd05f5f1U,
  0xfc0410150807ee0eU, 0x7e13f2e61f01f3dcU, 0xd209ff2181190bfeU, 0xd3e50dd503f1080cU,
  0xc94feee2a624e40fU, 0x1cb211e5f51dcb41U, 0x3a36d91320066659U, 0xf104eb0bfed19ecaU,
  0xa2ae71df8f6afccU, 0x3df230492dfaffe1U, 0x34e4c9e03fd23b14U, 0xa11cbbd1d312f5f6U,
  0x37009412db15e21bU, 0x10e723d735210d22U, 0xe9cc220ce3ece215U, 0xc044d1a5201f32aU,
  0xfd2807ced31ae10bU, 0xe318e5e324efe12eU, 0x8b41cfa29e9e7c0U, 0xdceb1d1c1916df37U,
  0xdee715b60320f7ebU, 0xdd4fe0781f1d902U, 0x2123effbc80a27ecU, 0xf015da6b67d82cf6U,
  0xbeef1e110d3e4e0U, 0x2221d00d4090548U, 0x1417d16aa3ebe7e0U, 0xd4dfdaf0f40cd109U,
  0xb60d244db9efb11bU, 0xcb350c22e013e7e6U, 0x1e02630e0d191fcaU, 0xf100f81611f6d77fU,
  0xf9e7bbfe0504e7d9U, 0x38ba3718ce72e62aU, 0xfad8d30410431627U, 0xb373e8e927f821bfU,
  0x3d04fafa17d8dd24U, 0x1c72b25d51cf5e1U, 0x65f605f7f6120befU, 0xe00e0ab620fa28f0U,
  0x28e3e5f1000fe732U, 0xd816fdf42802e80eU, 0xfeed3afb120fe1d5U, 0xffc7a1ea02a5fc48U,
  0xf332102cd30ef01dU, 0xf5e40f32e2d3e3e2U, 0x287fe2dc2cf123d5U, 0x1312fb2f323e1425U,
  0x28ebd510f62b16e9U, 0x17032548fee52f13U, 0x2ae2e9f9e4c8e1c0U, 0xc835fc310d04080bU,
  0x3dfdf0b011bd629U, 0x3c38f006da1be2eaU, 0xddf5f2fdf008cbb6U, 0xff11131c7c81003U,
  0xe5db13fe0cfee4fcU, 0xedd90ddd7ff9f80cU, 0xa0bfa06541902daU, 0xed0adc0d0b500438U,
  0xdec0f2bb338cbf5U, 0xf514f722e4e733f5U, 0x10cbea05fafbf9edU, 0x601a36fad7f20726U,
  0xdd2d07f7df40c4a4U, 0x1e3cf10bfe38e209U, 0x480db706080512ccU, 0xea16fffff1d681daU,
  0x8fa06f5f7eccc2aU, 0x49d3230d29c2e0dcU, 0x26e0c701dc1645f6U, 0xbe19f0dbabeae41aU,
  0x2b10e7e2202dbefbU, 0x286e22f531fdefU, 0xe0f804c9e17f1c23U, 0xa8b92febfb35ef00U,
  0x1163506e1d0e820U, 0xfa313ee831eaf6dbU, 0x1e54d1b70d1beec5U, 0x50f0a155d3a0ca6U,
  0x3854110e2ccfdeb4U, 0xeda5073200d10af1U, 0x91c21cef53fe83bU, 0xedd8e4babb0ecca2U,
  0xf0fd18daec0c19b6U, 0x1dfceacc7e05ef04U, 0xcce33a09d442091dU, 0xeadfd5d107061af6U,
  0xf7f8cb2dd10bffc4U, 0xca13ed4f1ccffa1cU, 0x19d7cae97f02dae9U, 0x291dc30a130a08edU,
  0x376520f2fadf03ecU, 0xd6c91137fa1bfcU, 0xf2c803efef0dd4d1U, 0xe5f61ccf142fd1fdU,
  0xe9e00fbb48fafbcfU, 0x1726d62bf106ec22U, 0xa6cb0000b683U, 0xffffef76ffffff95U,
  0xffffe66effffa9e4U, 0x11440000564bU, 0x85d00002841U, 0xfffffaf900003f2bU,
  0x1e43ffffa2f0U, 0x52ad0000137fU, 0xfe54128137952e24U, 0x37f2c3daf5040efbU,
  0xf4d4eef57f25d5f8U, 0x15e3d51abb0d1f2dU, 0x9d60c08fc041581U, 0xabb8f5eb71183adcU,
  0xf2f4fbd3fa0ba4ddU, 0x3e4ef080d81601aU, 0x251981e5eff213f3U, 0x19e12e250c2226edU,
  0x1eee907382fbfc0U, 0x7f905ee2f200e6e7U, 0xfa810e0cb2e3e3dcU, 0xb7b5e26d181af7f5U,
  0xf2a8f55f13cb81fdU, 0x50730deb51013e9U, 0xefd10d3afdcdbcccU, 0xcda70d7f58f622d9U,
  0xd50d2f0b0237e725U, 0xf0fa51362c2c3b7fU, 0xfa08ed0024101811U, 0xf41819f07ffbf403U,
  0xb933241491faecf5U, 0x7fb1f405e30907dcU, 0xffc2ce0c0a260750U, 0x5ddaddff2cfde81U,
  0xed3c0d058105f00fU, 0xe51ae8094b0fdb0aU, 0x7ff69604fd1edb06U, 0xf9ef312216d23e0fU,
  0xe60f011a3afd02ebU, 0xed13037feef1f4U, 0xecdaf1052908d343U, 0x2ae0ffe57ffcf109U,
  0xfd4cf2027f08fa23U, 0x1dd11e7c0e708f6U, 0x3ded8011a1cf825U, 0x3c3baefecc6ce81U,
  0xb62e17083d5b0909U, 0x7f0336fc4d063378U, 0xb219fc3d3913fb43U, 0x38135b9c3dc42e4U,
  0x1ca16117f02def2U, 0xe1b8efccc4e1ec4eU, 0xf31b03d3eb3dfa02U, 0xc4e1fe0281fa06f2U,
  0xc7ffdf828f5ecf1U, 0x292bf31f20f5d907U, 0xcbc241d7fe2eedfU, 0xd2fff7cb0c12fcU,
  0xe91103ccd75fed11U, 0x9bc3f018810700fbU, 0x681f1fea40309ddU, 0xc7370fa83bf6f90bU,
  0xdcb7ef4f2cdf3263U, 0x4a27fa7f2ad5221aU, 0x1d53cdb9449ff10bU, 0xc6eef37081f5ed10U,
  0xdf810f06c9d82db2U, 0x97455a951edfc3ebU, 0xe7f5feea2727c878U, 0x4ecbf3d97f15df0fU,
  0x159f6023926e40bU, 0x6794c17fe6093012U, 0x26e68107f1f602edU, 0xdc010ef0182f111aU,
  0x1e20fcb904f381eaU, 0xcddff75b0932b4f3U, 0xe7fdc310cbe78a70U, 0x7f4524369afa8733U,
  0xdae8ed341a0914f2U, 0x7f1b048e1ef11c1aU, 0x1279f7ea3afeeb81U, 0x345cf8f93907d801U,
  0xeedc0107fe21adf2U, 0x1535b30b7f25141bU, 0xfe0cd75c05c7e530U, 0x2943067ffed4e924U,
  0xcff9da20251f16eeU, 0x7f49019a1dea1917U, 0xd848f4eb123db646U, 0x1457fd81c10d1604U,
  0xaa2d81bf8cecfcddU, 0xed9560a35bb4fdeU, 0xee2ae62181e0f903U, 0x10f856e721dee1d4U,
  0x7fd4352c2a21eaf3U, 0xfcebe23b13f9f31fU, 0xef2412a2005f7f01U, 0xe619ed294df2d00cU,
  0x2a127f3c14020b15U, 0x1cf8dffeeb1bcbefU, 0xc8903bf3c97aeae5U, 0xfc1200810d1b6aceU,
  0xc108b71c607f180dU, 0x7dff9ab72da9e9aaU, 0xdd35e533f029a67fU, 0x3929feffe1fc0c0dU,
  0xef1b19c3cf71cbdeU, 0x81d1fe3d8a0cede2U, 0xedfe150aec20f7e1U, 0x2f381d51b3eebU,
  0xf701fe150dfd03f8U, 0xf2c5257f2ed4d504U, 0xf8106f319e6f3U, 0xe6db0bf6fa050b34U,
  0xf538e01f81fbec10U, 0xf094d0115c3dbe9U, 0xe2d181bbfe04e0d9U, 0xf7ec320b15c1440fU,
  0xdecd243d077f5013U, 0x1fece18d28fb6efbU, 0xff250301d31902f8U, 0xe41df82681ff11faU,
  0xdc358122c7f2f5c9U, 0xb481d9ae0b07d47fU, 0xe64648eef51d00ebU, 0x7ef5a22e635387fU,
  0xf81df8fef509fa81U, 0x82f0906bcf80601U, 0xeba50221d506027fU, 0xa4ac0c19e4ef2bfaU,
  0x80ff24cfbdf81eeU, 0x4dcf21dca51a3be3U, 0x221f2ca1d045cae7U, 0x96c801e4812dffd8U,
  0x9fc33c6df03c6faU, 0x14fde9ea00813015U, 0x9b643d308124d6e9U, 0xffc2f5e917dac20eU,
  0x84f381dd0ac501ddU, 0xdb870ed7e6e60739U, 0xf1fe4cf2d5110545U, 0x2e55f02174c527fU,
  0xe917162704311cceU, 0x4b6b1001a187fecU, 0xb9ede461231d7f02U, 0x6e5efd0c3da11a46U,
  0xc53eeed18124d10eU, 0x3ed197dd08365c05U, 0x9fbfdc5f0f3811aU, 0xfc31ec45061eb009U,
  0xf381ff00ba0609d9U, 0x41da030bf8090709U, 0xf6f7007b09d8649bU, 0xabb4fa7fcde454f3U,
  0xf5f21ec40713c8e8U, 0xa7f81c7ffd01f2c7U, 0xffedee49e8cd8107U, 0x37f2faebc71a3df5U,
  0xec810609d81006aaU, 0x4699f47d6b1525f1U, 0xaf1081e507cc07deU, 0x49207def6e10d3cU,
  0x33195798da2ab1baU, 0x9c840081b777e5bbU, 0xe6c0f8271cd4ad17U, 0x270a37af810c02f4U,
  0xe66d03240b0ce236U, 0x4c8109de8e04fee7U, 0xd8d0b32f1f60f43fU, 0xeaf594121cadde81U,
  0x37e78113100618f9U, 0xe7eff4e4fc6c0b28U, 0x6a5f5fd810711e6U, 0xe51f07cb3cf8fc00U,
  0x9ed41f0f2c5e749U, 0xe1f06b224435fb7fU, 0x234090717f8fdf5U, 0x810102320ce809f0U,
  0x88ea5d7f1d4ca8dcU, 0xcfeb1df02ccbf2U, 0xf23e5ed7f0583cd9U, 0xf7c87182bd54647fU,
  0x81e4e4d632ce06edU, 0xece5f713fd040df6U, 0xba5fb8ea8140d619U, 0x62a7fae2e6494ec6U,
  0xef7feb363812e03aU, 0xb4da32f5f8f303e8U, 0x2aeb4a818bc1faU, 0xe9319b2272272e04U,
  0xf2dddd170c05db20U, 0xd14e7f1500d08503U, 0xded726185c06e8f3U, 0x3212535cdb362681U,
  0xfbc908e77f500ffdU, 0xf3dc3eeac5e8e605U, 0xf9730b1c4afaaf07U, 0x811b021421fe4cc4U,
  0x5e44f613810febfeU, 0xeea27df2ddae003U, 0xfffffe24000023f3U, 0xfffffcd3fffff7d4U,
  0x1c6b0000157dU, 0xffffe1e400002b60U, 0xfffff359fffff605U, 0x107f00001e05U,
  0x1d910000031aU, 0xfffffb88ffffff37U, 0x1890fffff8b2U, 0x97600000e0fU,
  0x1053000020ceU, 0x1ebc000012c0U, 0x2055fffff6f7U, 0x1e1500002309U,
  0x36a0001447eU, 0x51500000433U, 0x5dafffff5edU, 0xd7a00000b16U,
  0x29700000083dU, 0x28afffff907U, 0x141d000003d7U, 0xfffff8b600000642U,
  0x7d700000303U, 0x10caffffecdcU, 0xfffff753000004c9U, 0x20000000462U,
  0xfffff7c100000635U, 0x1fffffff9b9U, 0x10f900000acaU, 0xffffffa400000f15U,
  0xae3fffffd60U, 0x184f00000b16U, 0xc2e00001644U, 0x71d0000027aU,
  0xf9500000431U, 0xffffff2bfffff697U, 0x2419000006a7U, 0xfffffc57fffffdbfU,
  0x2a5700001572U, 0x28cafffff83cU, 0x1ab6fffff2a9U, 0x17c400001d0aU,
  0xfffff8c1fffffa7cU, 0xffffffc300001903U, 0x1143fffff9bdU, 0xfffff863ffffe84eU,
  0xfffffae400000281U, 0xd13fffff9c1U, 0x586749a74c4440baU, 0x54a058a9635a5457U,
  0x5b81458889927f4cU, 0x57b34050b3607f3fU, 0xaab2bbb58150a26dU, 0x324da82fae91c442U,
  0xbc536481c43137b1U, 0xb2baaa495a0cb0a4U, 0x4e3eb94383b37744U, 0x5198998ab3c19bccU,
  0x4705b466a0619745U, 0xae64244743504ebfU, 0x6cd25a81616658a6U, 0x71917fa4bbc8656dU,
  0x7f926581ecabda68U, 0x689a56aa96cf7457U, 0x939caba28461987fU, 0xa667a353958bb25cU,
  0x985c6b88ae4d429aU, 0xa2c28659686daaa0U, 0x675ca76381997f5fU, 0x7f9193329ba101abU,
  0x4b939f74ad7f8751U, 0x9f7043626068629cU, 0x36de24b126292be0U, 0x2dd734d5cee1182aU,
  0x31b534c033f5d027U, 0x2bd220ecadd04729U, 0xcad8e9d8a21fde3cU, 0x9829d82abdcbd422U,
  0xc6282299e02021d0U, 0xf3e9c626215bdcdeU, 0x323bcc35b3d22830U, 0x4abee92dc4d62dd5U,
  0x2589c42ee830d71fU, 0xd633283c2b222bd1U, 0x6e7f6331675b649eU, 0x6491e1b17f7f5a63U,
  0xb43a5620b3af7d5cU, 0x6ba55978157fc66aU, 0x9a97999b8d6d9374U, 0x7f6b97488a8b9758U,
  0x95717291a6486e98U, 0x8f87836473688e88U, 0x6c56995c87a4bd5dU, 0xc7838e819ea9b4aaU,
  0x7f81887cb5d78d4eU, 0x9d714d61646860afU, 0x7fbd7f347f7f7f81U, 0x7f81d981beb77f7fU,
  0xa4187f334b81b47fU, 0x7f817f812cb8db7fU, 0x81818181a87f817eU, 0xf37f817f8181817fU,
  0x817f7fa7817f7f81U, 0x8181817f7f7f8181U, 0x7f7f817f94819e7fU, 0xca81814281817481U,
  0x7d83817f81d8817fU, 0x817f7f7f7f7f7f81U, 0x40be300e322e3bd2U, 0x32cbebb7c4cc3431U,
  0xd1263f147fa2af2bU, 0x31b3310913c6d03eU, 0xc0c9dccf9824d337U, 0xb036c541b6d0b831U,
  0x90342ba3c93532c0U, 0xe5d2b5342b1ccbd4U, 0x3555bb4988b9d03eU, 0xf3abd146a5c77fc6U,
  0x31d7bf33bbeade2eU, 0xc73d464b3b2932c0U, 0x373d2b3232293cd3U, 0x2dc9bdde454a1d22U,
  0xed5d282ff4e72a1eU, 0x2bc525395231b037U, 0xd7d9ced6c72acb32U, 0x5431d422c0d9c823U,
  0xa73525afcf192bd0U, 0xe5adc32f3354ccceU, 0x432fc81ab5dddd2cU, 0xa3c195c4bfe0e3dfU,
  0x3d95b32bedb6e027U, 0xd52b3135292529e7U, 0x3dcb354c47384ac7U, 0x3ac5a0c0e1d5392dU,
  0xed5a3a3d4ba9e12bU, 0x34b338c17fdcd13cU, 0xc6cfc6cfb52fc133U, 0xa36c43fbcd5c72cU,
  0x844028abbc352dc4U, 0xe2a2a4373b29c2c9U, 0x4840b625aebeae3aU, 0xa1ba82169acc3dc5U,
  0x3de1b42dc5b1e03fU, 0xcb395141312a33d2U, 0x19df18321f1423eaU, 0x16e7cfecdbd81f12U,
  0xf52c212344cde707U, 0x16d0190735f0cb19U, 0xeee7f1eae10ae518U, 0xe316e121d4ecdb11U,
  0xbb1e11c6e31710efU, 0x8dedd1810fee9edU, 0x2226ea19c3e3d81cU, 0xddddf61ecae93ee1U,
  0x18fedc0dd5e20012U, 0xea182629190918e2U, 0x312a00018fa6U, 0xffffff1a000000baU,
  0xfffffbb5fffffea2U, 0xffffffd7fffffa45U, 0xffffff7f00000881U, 0xfffffdc2fffff904U,
  0x7c430000dc9dU, 0x1030000073e3U, 0x190fffffed6U, 0x85a60000b669U,
  0x12dc000004d5U, 0xfffffbb2fffffe1fU, 0xfffff6f60000192bU, 0xffffdcdcfffffe87U,
  0x62200000749U, 0x10d200011d74U, 0x20eeafffffff9U, 0x744500000ce3U,
  0x1d9b400028e7aU, 0xbe1900010084U, 0x14a2900000047U, 0x1343c0000b457U,
  0x133f50000163eU, 0xda430000112bU, 0x3a000008203U, 0xeff900000057U,
  0x1e350000bf03U, 0x8bab00000411U, 0x142a800035fc6U, 0xfffff80a00000f4fU,
  0xa1f2ffffff28U, 0xcc7f00013f66U, 0x5b000000b7U, 0xd5e90000f80cU,
  0xa7cc0000069dU, 0x18b0fffff058U, 0xffffcbdb00012577U, 0x84aa0000af13U,
  0x1494bfffffe40U, 0x1d5d0000496eU, 0xeb0cffffff1fU, 0x3423b0000034aU,
  0x10e470000159fU, 0x7200008d11U, 0x410000e8acU, 0x19b7fffffffbU,
  0x33e500004e91U, 0x1700c00001545U, 0x7fed3090c3dc2f8U, 0x11f7e5320efed513U,
  0xfe058af5f10903c1U, 0x1b1df708020c0602U, 0xfc2fd1b4f9c3f204U, 0xf8f9fc15e3fcf2e2U,
  0x4f61202100d0516U, 0xefdff59f370adc01U, 0xeaf7e8f2f733087fU, 0x130a0306dc1103d5U,
  0xfc0efdfd11151debU, 0xd02e03eeca032704U, 0x5cf282fbd103e0d0U, 0x1dea0ed91736fd3cU,
  0x3fc6b0094fceff9fU, 0xe31f2059dd1c1ae1U, 0xec8124fdc8a41902U, 0x216a4115e8cce8baU,
  0x931e18e439f5c3e6U, 0xc2f0efbed8f5ee1aU, 0x103bf6f5d8fe1391U, 0xbfdfe2360f98ce35U,
  0x4ff6424a2303f352U, 0x71e6535f57a541fU, 0xe44d171b1cdc191fU, 0x87dfd01016eb2b18U,
  0xf8581c33f8da321eU, 0x2ce47ee4fe09bd52U, 0xef3c5e5152cbbadU, 0xa9f007328cfbce09U,
  0xcc3006fb0af9f6efU, 0xfd1c050667d20cffU, 0xdc50b1e001a02e0U, 0xef16f2070f7fb9d5U,
  0xd7ef0e819344562aU, 0xe00eb71d31c207f0U, 0xbff3e5ebf8b5bfcdU, 0x11ff24edf0ef4b1eU,
  0x811f2fefe13d107U, 0xec0fb3fd0fd2e7e7U, 0xcabee2e4ef06e4ebU, 0xe33ff3dcffff0dcdU,
  0xdbee1201d00e3809U, 0xe4b426ed1b23e3e8U, 0xf31edbfefbcb0623U, 0xd429eaf32112f154U,
  0x4beb1303e6dd1c08U, 0x1cce0ae0250f81f6U, 0xd2ee37141af836c9U, 0x1006e01404de6213U,
  0xf3f4db27052cf9e1U, 0xf260dfc27040d33U, 0xf92771eb0ca8d0d8U, 0x1c0877b82104d8faU,
  0x85b0ae5f16b3320U, 0xffe410d91d32350cU, 0xc7fde826e7d31081U, 0xc0ef80bf42219f8U,
  0xdd50c1fc20d18e7U, 0xf9fcd62d0bd31ec8U, 0x3bf9f6e6c8f5da93U, 0xf418ed220f1ae9f5U,
  0xe925ec10bbf6f60fU, 0xe514e2fbfbebc37fU, 0x7284c1804f0ede5U, 0xc3f80820ec1831dbU,
  0x8d60900cf3a092aU, 0xf308e0efce55U, 0xdbf5c7ed1e220100U, 0x1cbff207f6d71af9U,
  0xf9143e0cebe1f6f8U, 0x5dbc01437dbe8adU, 0x201af5f4bf26e02dU, 0xea34032f283b0ff3U,
  0x821b3d0f03b0f38U, 0x11d3c729e112e010U, 0xdff7370fdef97ffcU, 0xe3f8154a2d19fd2bU,
  0x60adb0c18b1b5f8U, 0x151b1b33504c07bcU, 0x30fc1878efe6f741U, 0x9f32f24ec4bf4c2U,
  0xfbe0e5360af7f2beU, 0x65031f30d90801fcU, 0x1bf6bbf2e3f52653U, 0x8fa7ffb381bf1e8U,
  0xf0fe0de1e92433f5U, 0x2f2ffe15ff32e918U, 0x1e060ef111d4ee13U, 0xfd17fa2412eee4e5U,
  0x1b132ae3fecfd4f4U, 0xcc221a03e8c82ae8U, 0xd1620e7e7f10425U, 0xaf40d0e0d011c7eU,
  0x1c16dfeef01ef4c5U, 0xfe01001f03e20df0U, 0x405f2f5100211aaU, 0x4afe10eb14110fd1U,
  0xd152e0d020f1a3fU, 0xaad74106f40efbf1U, 0xcc0c17c6d2104d07U, 0xece5c3ff19ecfd7fU,
  0xbfbf61674350eddU, 0xeaedfd1a17f007daU, 0x200ef7fa0ad20118U, 0x14f4ef000afae74cU,
  0xcdeaf11e36060706U, 0xd7e902fc041c08e3U, 0xbceaf1f2141535f9U, 0xb060af0f9e503f8U,
  0xeb39ebd78df905e7U, 0x12071ef3f109adb5U, 0xfef8e73f04ea0200U, 0x81fd24aa06d1ea08U,
  0xf1120d0d04f2d7ebU, 0xffff04e3fc1d23faU, 0x6050b22f707fed9U, 0x132d03fd10c4fb0eU,
  0xfb0d18edf4e91112U, 0xf31234ebf81c1b11U, 0xf6feecf9f90d17ecU, 0x9ed02f90102050aU,
  0x3031efafffdfefbU, 0x2406f60a0003ff14U, 0xfcff00fe00e0fdf2U, 0xf90acdf5f52517ecU,
  0xf1badc26f80b0b0eU, 0xecf204f712ff7f09U, 0xfb000310f303ec0bU, 0x209ffe7050302feU,
  0xea030c020c07211bU, 0xe60e071bfd06ef12U, 0xedffcefa0849e6f0U, 0x5111fbd5e5fe11ffU,
  0xf9f80bf3fe08074eU, 0x92db35f7fef40700U, 0x3198b14048704ffU, 0xfc0f2501070405U,
  0x816d816ddf1e415U, 0xb123844f7f8e77fU, 0xf0f009eb05d009f4U, 0x40d0a08de6314feU,
  0x2a01011e00f61cffU, 0x5220eddf50afd27U, 0x1706e4f0092914eeU, 0x18e00a29fc13edefU,
  0x80521e90427050fU, 0xb02effbf1010c08U, 0x614ede8022612feU, 0xe44127f41dfa18U,
  0x180bf1f717c702ebU, 0xe001fa141a3014e3U, 0x18010ad51808f998U, 0xfff20af4fffbf4fcU,
  0xcd0539fc0802ffc4U, 0x810d11dce418d50bU, 0x400c4de41cd5a83eU, 0x4f70915e706d23cU,
  0xfa112d06f100dfd2U, 0x9c0781f3e8c6fe07U, 0xd80f251cf3f231c2U, 0xf20a3712f51fde2aU,
  0x1020d1e3ad070fd3U, 0xc8e4f6eed5ea40e8U, 0x9cd90bdffb13faffU, 0xd7d3eef9f211f710U,
  0xf70a071f0ec42cdcU, 0xf4e80af1f5ed4c20U, 0x80369fafaf7f92aU, 0xfd0f072304f6ea0aU,
  0x2edf10100f904daU, 0xb42927f806fc09fcU, 0xf2fce4e7f3f60cecU, 0xb1307ef03d506f6U,
  0xf403120b012deb05U, 0xfd10f7bef6e70f19U, 0x2cf503010030fee9U, 0xf6eefeffe7da01fcU,
  0x30302e6def90deeU, 0x15defe1e0dfe8111U, 0x4f781020af3f72dU, 0xf30dff01000005edU,
  0x2031b03f40006e0U, 0xa92d3bfd0a03fdfcU, 0xd0024180bece708U, 0xa0aebeefbecfe0cU,
  0xf3f70817fc1920feU, 0xfeeb0afa080a13cbU, 0x81302f2070703ffU, 0x5f6f4fefff107feU,
  0xffcf51bfafe04ffU, 0x13f701031d03ef01U, 0x32ea522ea1250c75U, 0x40eb0819f60e18f1U,
  0x1828d504d227eeeaU, 0xe90a11f1e4f2eeefU, 0x1a34b0c7fe01d446U, 0xb10bb239210840ebU,
  0x401c1df20fe441aU, 0x399ff1e3274fcaedU, 0x1b20308101e502ceU, 0x8f4c1eb02e5ef2dU,
  0xf8e9b814081a95d8U, 0x4a211d55f3176135U, 0x27e0830a1ebfbd66U, 0xf1ecdfee13151edaU,
  0xfbf7ce01f6f7fa12U, 0xe08cd0e1203fd39U, 0xebdb81fff2f0f414U, 0xa1b08140d4ce8e9U,
  0xeb31d7e7f75af31aU, 0x712e7fd09f6fffaU, 0xfe0bba2ad8f0f1d7U, 0xe8fb08f8ffd21319U,
  0xcbf3fb0508fbda1aU, 0xdefe8e3223cdf7abU, 0xddf01dfde7d9134dU, 0xf3b116fd00f9420dU,
  0xf9f552f3fa07e8efU, 0xf916f62813fee4f9U, 0xd8c57c26e1c40921U, 0x34cafd8d7ed21b2U,
  0xbeea24eede63c114U, 0x1b0012cef507c121U, 0xd60c116cdbdff1dfU, 0x808070f1f060cfcU,
  0xdddaf046dcdfc20fU, 0x81dc04e11f00f327U, 0x15ffb44ed0f20438U, 0xe3d79af82c0f1509U,
  0x39fc1d01cfed62fcU, 0x7ea0611253e20d9U, 0x6ecf8af06e12d0dU, 0xf81ff205d4e21436U,
  0x9d420f3d9af07cdU, 0xd41e13ccf5cd09ebU, 0x17f803e4e10427d2U, 0x7ff5d613c03c3f0cU,
  0x51f2f1e0c66aed02U, 0xf6fc2f38d109fee4U, 0x4dfed00c37190c04U, 0xed11e63e180e421aU,
  0x6ec3d0b182111ceU, 0x20012209ef110c07U, 0x2afcc1360ee11706U, 0x22f9d1f6cc1d05fdU,
  0xfdecc00e1f0fd3f0U, 0xbf34c4f19a5be52aU, 0x19eaeee3e9e40e6fU, 0xf7dff705e286f3f7U,
  0x3abdebd3901d3581U, 0x1a16fed6e8160d01U, 0x2f60ef1fdd3bef5U, 0xfefef803f4f148e5U,
  0xf8da81122613010bU, 0xcef02aee130009daU, 0xce8e206fd34d0e8U, 0x2df3ddf80aacfbecU,
  0x2e46c22eb05ee05U, 0x3c16fc08c43a763dU, 0xd40c09ee30d2e000U, 0xfdfb0bdf13f2fe0eU,
  0xc0e00af8b805f8d5U, 0xe9f8f55532f4751fU, 0xd455b314ce072df2U, 0xe3f6571cffdedc47U,
  0xde0cca0b40f919e0U, 0xe4e702d7e9de03e5U, 0xec3ade0cffee0c27U, 0x7ceeec2eef6467fU,
  0x15c1faf1f40fe9dfU, 0x10270ad5d0ede1dfU, 0xd2bbcedc020df4efU, 0xfc20faf1e20fc7e8U,
  0xdbf70de1e3fac7c3U, 0x26c63107da17ef9dU, 0x3fe3206e73a0119U, 0xfde5e6c40cfb0d35U,
  0x616b10602eafb3cU, 0x10c4effcecf700feU, 0x2a3530781feb06e9U, 0xf4eb19f71106fc01U,
  0xfc1ee9f225fc2f06U, 0xfde9007fbe0419f3U, 0x65eff5c1edbfff30U, 0x17f5daf3cb03f304U,
  0xc7f7060c15ff0c0dU, 0xbaf90f28c107baeaU, 0x3f080000a3faU, 0xf9e5000081b3U,
  0x9e20ffff9e34U, 0xffff7a54fffeea52U, 0x53bdfffff0feU, 0xffff9b34ffffba72U,
  0xffff704700000f89U, 0x3254000008f4U, 0x1132800001efdU, 0xb22800007233U,
  0xffffdaea000066afU, 0xffff7f1800009043U, 0x220abd4ca62c25d0U, 0xdf13a54ddd8132e9U,
  0xfef9029c03234c1bU, 0x7f2a1feef8e4d72dU, 0xb6fe1c0de3214a36U, 0xb0051ff6192bf8c3U,
  0xf043b56f65ebd5a7U, 0xffc721ec52e30633U, 0x542b557f3c2ffb10U, 0xd403fdcc39eac8c9U,
  0xa31edf00ee20481U, 0x2b15fffce1fd2c0fU, 0xe013f02ae6031be0U, 0x4252204d37f25e6U,
  0x44fe64f318c40e00U, 0x424519f1e47f401bU, 0xb4112cf844e9dc13U, 0xf00fe15de071e1dU,
  0x502ddf2dee24ce81U, 0xe8fb45def60cd82dU, 0xf8f1cdc4321eb229U, 0x81270cecef96d2f1U,
  0xbbf00b04d7021be1U, 0xe2000401070810d4U, 0xa30935f02402d501U, 0xf9d6f5fa02fb6d1eU,
  0xf7e3eef87f0ef71aU, 0x95f1e60fe9dd2f1cU, 0xd7d507eaa10c307fU, 0xdae6ef3c02e7ea35U,
  0x68f85f76a218278eU, 0xef0397d4816efb40U, 0xfbec32eadb13850eU, 0xd081eac3e73d32feU,
  0x6cc149f321be310U, 0x5cdc9b9940041de5U, 0x2c10f23d2d39f800U, 0x8d2fbf62fdede20U,
  0x36e9087f15391e18U, 0xff0f071105f411f4U, 0x2fc06ee1581faf7U, 0xe2fdc9f7dfe3f00dU,
  0xe1ddf036d5e8efd8U, 0x15e2f9e4afdaea1dU, 0x2902ca237f32dd01U, 0x3cf2e32a57222811U,
  0x4ffb1d23dd0f8138U, 0x5c0abadd08f60126U, 0x3321fd7f07c8ee65U, 0xc6fc1b8f3d0fd491U,
  0x66de9606717e2af2U, 0x4a051c3bcec700bcU, 0x81d4e3d0912a282cU, 0xd5f0c0474b40dcd7U,
  0x2c43fa69541ff845U, 0x4fce08bc0d29d52dU, 0xdeee93810e5c3ef6U, 0x201bf513e70d1407U,
  0x121f2705fd7f12f9U, 0x28016ae522d022ecU, 0x9535db19d2c0e061U, 0xee58dc328af1ae7fU,
  0xb122e5f802d3b2edU, 0x454812d16f3d32dU, 0x8d536cb4d927e9f8U, 0x490c629e96826378U,
  0x29aafecdf520f91bU, 0xd1d8037fe7310500U, 0x35fcc42d2f7f0ae2U, 0xdee7bbc0bc7fe8e6U,
  0x1ceaf43aedc2eb4bU, 0x12fbfd246af02e1aU, 0x7fe61641c52907c0U, 0xe2ea0deec604f032U,
  0xf9dadf02e921be0aU, 0xeebac781cd31c2eaU, 0x6cbfa66f12b1044U, 0xfa1be930f763fc32U,
  0x1d4fd0f90559281bU, 0x5d2fae61e14eb8bU, 0x4efff7ffc11ecU, 0xd4f0f82407f6fefbU,
  0xece706020d8109eaU, 0xe6f0bcffe80a0317U, 0xe11c02901b18af28U, 0x1ee1dd8107a2d616U,
  0xd6f5e63cfa1a0a41U, 0xe208b417e70b2600U, 0xf80ceb030214451cU, 0x6dbe347f181f4ddU,
  0xd50b12fa0dcfff87U, 0xe5c6f6f1600aef12U, 0x7feb4811fb1e04d2U, 0x6c5e1721ca3b2d00U,
  0x571881de36fb1e40U, 0xb301c51b563919baU, 0xbf39010b461fe701U, 0xf1052a4205c92581U,
  0x942759143213f125U, 0xcc08170ef7de1101U, 0xa38126dca81305d1U, 0xa02b32f33edfd4fdU,
  0x7fe4ae0225236713U, 0xde8b5eddff11fd03U, 0x90d53b1272e82b2cU, 0x382200f819230bf7U,
  0xeb1aedf11d172e16U, 0x10dbe9fa7f01093bU, 0x11bcedd9f53c1d23U, 0x28f1425a2cd1010eU,
  0x1d0314ee517ff8ebU, 0x7ffb3d4fcf2b1fb3U, 0xc8ff07f7cd48d745U, 0xc9c5bf22910e9ff0U,
  0xd4482c160a961b36U, 0x32815ce64e1bebd5U, 0xda2b11c60a33ef19U, 0x5eeaead5fb192cccU,
  0xa1dcfd942f020e50U, 0x34eedbd97f4440e6U, 0xcdcffd42e822fcd5U, 0xe6cfe1f79312d71fU,
  0x38e7c0297ff3d8fcU, 0x77fe25ed13faf47fU, 0x181fb8ecf6dbf150U, 0x5d014aeeec29dcc0U,
  0x2e024062f9035706U, 0xce0f3b5dff8120ecU, 0x270ef1df0df40302U, 0xa6f20731c5ea18e4U,
  0xdf02fc1037b0f4d2U, 0x55dfd4f2811810e9U, 0xd1d1ded605f3e2deU, 0x7ffcdf171c2205a1U,
  0xed0c22e7b4d9bcfcU, 0x510fc16e92409f9U, 0x1c3c1819037f16f6U, 0x1ef257d7ead7fad7U,
  0x6f5aff19e8ef0e11U, 0x14316f65f23017fU, 0xefe4e0f41d1e3909U, 0xd11d9970205a2f4U,
  0x310bdb81e323d221U, 0xe3f7ff2cee40ce43U, 0xfef002cefafbf5e7U, 0xdf4f4efe87fe61bU,
  0xf70e22212410fa18U, 0xcde1055eb9120381U, 0xe3031a0de129f403U, 0x2cfeb09e100af0dU,
  0x7f9a1b99ced53eadU, 0x1ae1efd0520141cbU, 0x330f1c2512f613eaU, 0xb6d834995123d910U,
  0x11d810d21e81bd21U, 0xb9ce906e345cd3faU, 0x7f4f27da03fcf2ddU, 0xbb26ea2b14ee52eaU,
  0xa61c3863c73317eaU, 0xdd0ff3e24511fef7U, 0xb87ff51d0ef9fddeU, 0x6d02ac144f06eae8U,
  0x6ff4a46d0e01b81U, 0xccefe04f0000e1aaU, 0xdb4dc2a94a3e0b60U, 0x91227fee16c8dbbeU,
  0x33fbe94bec37bf20U, 0xb810639f78e4a0caU, 0xe3813a7dbb69ebacU, 0xad4cd48a42652ea1U,
  0xcfc8c028ea2eba4aU, 0xba10fae4da1039ecU, 0xb116f7f6e1eb8f18U, 0xf9f00a1e81f4f9f7U,
  0xebc009f9222ce332U, 0xcd10f4feced627U, 0x320dfa137fd21a16U, 0x7f1c2ffafcfd2d06U,
  0x67e1befb1801363cU, 0x39e0a6ff32edde2fU, 0x810ddd29162be301U, 0x7ccf0f0ecaf9e00cU,
  0x58e1d0d630edf914U, 0xbccbf4e63c0b2022U, 0x7f03263e43dafac0U, 0xe3ff2ae30bbf2755U,
  0x51e7e6fbfbc119e7U, 0xe0e1e4eff4fff581U, 0xe3f621fee113fdf9U, 0x3ec6139cd6040ddcU,
  0xe4de11d93817010dU, 0x160fd881a8f30ad4U, 0x43ea54fe19ef0611U, 0xb1f0d077f0d48c1U,
  0xaa4305fad74f10e7U, 0x38194a121ea9387fU, 0xd102ac3ae30618f8U, 0x694643c7eef31cbcU,
  0xa10115b63c1edbc5U, 0xb67fbd2ef9ff17aeU, 0x6cfcf1fd2bf1e2e9U, 0x300d0f12e612021fU,
  0x3d3c1afa7ffee3beU, 0x1306e4efe029de15U, 0x7fe906e201cfffb9U, 0x13dbe41843f215d0U,
  0x5075b7bf80b0301U, 0xc2e00037e5edf181U, 0x13fdfa1f1e3c0cdeU, 0xc10f861235061246U,
  0xbffff65f01935f1U, 0xe2f41c1605810ce6U, 0x5dadff1cec81beaU, 0x9642d317288a59d8U,
  0x2cfde9fb7fefebf0U, 0x40ed00df3de7effeU, 0x4752d6edee221acaU, 0x7fb805f4a8fe10a1U,
  0x3415ec0915300bd0U, 0xb8ed227f1812d10dU, 0x72d6df64e4e1db13U, 0xeca5e52a5ebd559U,
  0x4e81431fdfc1bf2U, 0xeeebe919f68100fbU, 0xf808e8e9fdf4160aU, 0xeb2357eee9c00d13U,
  0xe115ac0acdfcffdeU, 0x367f28c2fd100f58U, 0x2228e3022cfe1027U, 0xaf3e7810515240fU,
  0xe8dcdd5df599d4c0U, 0x2618e3dcfc7adae9U, 0x3e7fa5140ce31619U, 0x4721cc0e7ce403e9U,
  0xa72714f75cc2da53U, 0xc57f1f30c32ebcf7U, 0xa1e6e0c408d51821U, 0xba309d5ee192397U,
  0xbcd31eb956d70ec2U, 0x7f2530626402ecf4U, 0xcb570cc8070939d1U, 0x7fe40428eb0b14a0U,
  0xb0e9eded2217fbc8U, 0x6414f9270f081ff7U, 0x1a160fdc448101f5U, 0xd7edbdfbd5eaf6f5U,
  0xcd1cda3526ebe114U, 0x752b0c1381f4d0eaU, 0x51059ce30dead704U, 0x301b0d70b0ad8U,
  0x3a1b1f5381d0f1fdU, 0xe5f7151aa0f329d6U, 0xaeedfa11efb4f30aU, 0xf6131705eeff09f9U,
  0xd13fc117ffee4f2U, 0x853474e0067f2016U, 0xfbf266e5cc040f29U, 0x18c2cd3b60ef2555U,
  0x3bfe033cefb7e3eaU, 0xd5d23acfdaeb0f7fU, 0xee0a001a7a4004e6U, 0xe42018221705f2c8U,
  0x881053450f0efefU, 0x4c18456b04010227U, 0x2824dc04816cbcdaU, 0xf3829e8d4e5e617U,
  0x38ac65cedd259ef7U, 0xd022e9001f2be717U, 0x813319111bfdde4eU, 0xdd1bf8d015e5f518U,
  0x30cd33dbc43710edU, 0xc1e49f04afb726e1U, 0xbf1b057f1724acfeU, 0xecd1b00d03cf30bU,
  0xe7ee1c6af632e5feU, 0x290001e4267f2f19U, 0xb9d3f119fc1ff322U, 0xb3f90af5eb13ee81U,
  0x72df5210ded17eeU, 0xd576cb0efa81fc04U, 0xb33a02ea2651455dU, 0xcaf5e0d7462911eeU,
  0xc5f20610c30f04U, 0x1a3e2067ff6fb2aU, 0xcef718e3e203f221U, 0xd23ebffbf006361fU,
  0x815115182621b92fU, 0x9b0f01efb4ff03dbU, 0x331da23a1eecf6d9U, 0x10120487efc50d0cU,
  0xf5abff0081aa230cU, 0x45ffd91daf2ed074U, 0xf81ec6b419ce0a89U, 0x42a97ff6a02bb2d5U,
  0x810cde45b4590e0fU, 0x1f923befcfe0d33U, 0x271c050b54ebd728U, 0x33971c00c8b134eaU,
  0x5837e0b4a5e338bbU, 0xe708057fb7283628U, 0xf2d905d938f3377fU, 0xfb8d3f2c1a8042bU,
  0x6a190d284a1909faU, 0x50df97051b2bdc3fU, 0xcf4060de7584d67U, 0x39fc06cdcbd2481U,
  0x14ecf1cc4c98fc08U, 0xfed0343e1d161dfaU, 0xad69974439ba7ff7U, 0x1b8109e8fbe7b0f3U,
  0xd6f20c1e23f1fcb8U, 0x15f043220590de44U, 0x81ef12c9fb1a1513U, 0xf913420efdff1d95U,
  0xb503159426070e05U, 0xfb0c14e53aa1d1bcU, 0x7f680f32610915bdU, 0xf2081ac6dfb911f2U,
  0x22f5eb11e709131eU, 0xe4811cdbcf1f091aU, 0xb0d43800fcfefc10U, 0x570607f41d0f097fU,
  0x2824da032ba5033bU, 0x5ff64ce5f030f6caU, 0x15a91e0cf101ee17U, 0xcdea1263f516fadfU,
  0x25fdeef11d7f07e3U, 0xa5b9e201d9233981U, 0xfd10feed4bfa52fdU, 0xd5f70d2771c4df5aU,
  0x98884b28ccd0f2d6U, 0x2dee74e7beec087aU, 0x777f0c3cc60527ecU, 0x971835982ad6e9c9U,
  0x2b04e7d3f758e51aU, 0xe33342dd26491d7fU, 0x4ed755fb3fcf1d4bU, 0xbed781d6a40dfd48U,
  0x191e17184a300fd2U, 0xed1affe6fcecefe9U, 0xeff5d2daf781e9ccU, 0xe525dcee0a112d6aU,
  0xdd0f5aa873d0f2bcU, 0xc74f7fcc34fadf99U, 0x4bfd0f1a081b03e0U, 0x7f0ddf02fbf611fbU,
  0xc52519fd190cecefU, 0xf31ef707980a0bdcU, 0x1d22f053a949120U, 0x15164f7f0b5a0a8aU,
  0xb6d3440628bc96f7U, 0x7f19def10d0ef550U, 0x121ddb04e608fb4bU, 0x6fd466ade92435e0U,
  0x7c07f31d17e50d0cU, 0x29664e306180cd6U, 0x811e47c7ce421dedU, 0xf6e4ea7fc31e46e3U,
  0xe1f9fb62f79c41d0U, 0x20f800b008f93aefU, 0xea051dd74623e2c5U, 0xdb7fd3f4e6ee01a7U,
  0x46ebdd113e1c10f3U, 0x22ec1018f8edfd98U, 0x270dc9fc3962fc19U, 0xb8158130e7fc1223U,
  0xd02817fb81a81a2bU, 0xa2d42536dfbee49U, 0x48f7bd2ed927ce3aU, 0xf2eefcf8f72bf6faU,
  0xd84e30ff16271181U, 0x18e9ce180338e732U, 0x4f322373add5eb58U, 0xcdf44681de2803a3U,
  0x52d5c32f2e4bd4f7U, 0x56efcd0f106bf221U, 0x31c465f33ab2f815U, 0xb881db3dcbcff891U,
  0x362a177fde185503U, 0xd213f51cdeb702d7U, 0x3c2627b932a728f9U, 0xd6f2210981980627U,
  0x30ab773253fe0a69U, 0xce492613c9c7ca0dU, 0x2dff1a14ca150cf9U, 0xe3e743cbdaec137fU,
  0xe139f60ce82503ecU, 0x9ed7ed0fd4f50b7fU, 0x377af108bd1b468aU, 0x930ed3342100cd34U,
  0x81a2e521100f0914U, 0x7e8d6f5170df3f8U, 0x13f1100c56fdea1fU, 0xea074bdf20e40f68U,
  0xdcd38103c41810fcU, 0x444a39e61d0120ebU, 0x7a082481c6f329f7U, 0xae3afee6180846f4U,
  0xa61be9d5cc1d25abU, 0xcf1433d0ffffe9c5U, 0x137fde3d26eef7f0U, 0x552ed916f2f5fec8U,
  0x10fec9010144fb81U, 0x1c1c59eb2b3ffaedU, 0xb5d7d62714e3f129U, 0x81e5f2c902e7eb10U,
  0x3139da240eebfbeaU, 0xe81235fd540710eeU, 0xda25f4ae4008eaa4U, 0xe37eac05cacfffedU,
  0x7fccd31d2dfef9f4U, 0x24f9f5dbe5590d34U, 0x7f62eb0569c90478U, 0x40e74c05f7f33a0bU,
  0x81fb2908e3fd2a28U, 0x8814dd91701091bU, 0x95ff5400e9e6ef00U, 0x3ef9e1af210c0923U,
  0x466228357fec44bbU, 0xf02734e25be15215U, 0xc5009c0036813102U, 0x22f4f022316532aU,
  0x191cfcfd2c17fdfcU, 0xf3422222afd81873U, 0x42c13e147f2df805U, 0xe704c81fc92a0dd9U,
  0x281f17f3c0ee822U, 0xe9dbf8c1e4300a3dU, 0x3ff3cf06480d0c0aU, 0x5f16f33dc6d129b9U,
  0xc61801c8ee411627U, 0xfd1c8142cb2003dbU, 0x16d2000026caU, 0x22d600001582U,
  0x3b1f00002b5fU, 0x6a400000c9bU, 0xfffff26e00001c79U, 0x1b28000040a4U,
  0x89100002237U, 0x605000004968U, 0x547e00004601U, 0x486600002405U,
  0x438effffffd5U, 0x11b00001ca5U, 0x23b600003e8dU, 0x1ff3ffffebccU,
  0xe680000356cU, 0x5d7900001a6eU, 0x43c700016f53U, 0x25f4ffffe8fcU,
  0x650a00000046U, 0x58e7000037d2U, 0x280c00003bdfU, 0xbeb9000020fbU,
  0xfffffc62000033ccU, 0x2c5f000048a1U, 0x269600001741U, 0x3046000017abU,
  0x267dfffff5c3U, 0x5270ffffe6a9U, 0x2c13ffffe6f1U, 0xeb0400003535U,
  0x1c9d800004008U, 0xffffe906000000caU, 0xffffed65ffffe5a5U, 0xffffe9bd00000b92U,
  0x37d200002e2dU, 0xf99000015d7U, 0x3fce00000df9U, 0x43100001318U,
  0xffffcdf0000029beU, 0xb1600003038U, 0xfffffc29000040c8U, 0x48c0000326fU,
  0xfffffca500000125U, 0x13e900007430U, 0x19c60000126dU, 0xe9e0000383cU,
  0x5c2bfffffeb0U, 0xdb7000031a6U, 0xffffffea00001fbdU, 0x6e500001214U,
  0x2ebe00007c71U, 0xfffff1e3ffffeff9U, 0x54f30000df5fU, 0x5d1e0000379fU,
  0x31490000169cU, 0xfffff2c800005b3fU, 0x1eee00002776U, 0x163400003c1fU,
  0xffffd6eb00009af8U, 0x254f00000f0aU, 0x336500000274U, 0x653600001074U,
  0x70000005f9eU, 0x289300002053U, 0xfffffecf00003931U, 0x1b4b00008a7aU,
  0x331fffffeb91U, 0x386100002d28U, 0x511f00002d84U, 0xa16000004eaaU,
  0x37f10000273eU, 0x4cf200001e0dU, 0xee0c1607fe1b001bU, 0x1004e50402ea1002U,
  0xfe2f7fc14fd0224U, 0xf3e1e301d114f40dU, 0x9f0ef05e728171fU, 0xffe08f0facc0700U,
  0x2190900e2d916f9U, 0x10d6ff07f90e2001U, 0xed900120020f307U, 0xe40617e4baf5422bU,
  0xa09b0a2fb15f731U, 0xe720b19c1007f5f8U, 0x50113041ef11604U, 0x1e2a070b05100fe5U,
  0x1e0606efff14fa0bU, 0x1204f80e06e205f5U, 0xf1fe11d92ce70c21U, 0xf7f9f1190c100300U,
  0x8bf6e7cff1a6fc7fU, 0x7ffdacd1c6fd0d81U, 0x220086817f980b7fU, 0xfe08198b528817fU,
  0xec04990cd35e7f03U, 0x7ffb26fd31aaf32eU, 0xd71eb643e11502e3U, 0xa5e541dff17f4407U,
  0x4203ff0e1f400deeU, 0x810674e8bda6a07fU, 0xfce1a68102fe12bcU, 0x3b7fdeb490260617U,
  0x35077f0a3ebf1a9dU, 0x7f57ae7ff803f6e0U, 0xdbd1cef7ff8e6c3U, 0xa9e10ff1fe85fdccU,
  0xaffa7f3d153d2ef4U, 0x3acb306fb59f1cfU, 0xdf0d00fcf4c1fb20U, 0xc02e000fa140ff1U,
  0xb19e7100f04f713U, 0xe6e2ebdeca0edc16U, 0xef209ec3419dfU, 0x27050a1207450b07U,
  0xff280cd4e41c2af8U, 0xf7c0f70604101c0cU, 0x123e04e20422fc07U, 0xeafb0a27aaec0521U,
  0x4f17a0bef4ef1723U, 0xe713baa0a616e502U, 0x3130116eb1306U, 0x5921fd2c04eef737U,
  0xdff20cec17f5140eU, 0x7e9020103ef00ecU, 0xbf0510ff2aed09f8U, 0x701eb12f51f0b00U,
  0xfd0b7fd30382f7f9U, 0xe6d5acdbd38c0cf9U, 0x2281e519f0b10fe9U, 0xcaef9cabca29dff2U,
  0x7f81ea08d445f30aU, 0x1f13caf9a67f04U, 0xe809c411d61612deU, 0xb7fcd8e9fae2e215U,
  0x1b81f016150b2e03U, 0xcd816581d8e0e6e0U, 0xf1fa81881b7f0e7eU, 0x23da6e8e81c7c40eU,
  0x361af91650e120deU, 0x43deb4fafd7f7ff4U, 0x7f810d290a7f8bd0U, 0xccf90c7ffa907fe4U,
  0x1f81f4080f1f377fU, 0x8113f02a7ff781bbU, 0x7f7fa2b07fd6a5c7U, 0x8c817f7f7ff77f69U,
  0x7f150fd2ab815394U, 0x7f7f8cc97f7ffa9aU, 0x8111d37f7f81f87fU, 0xad818195817fcc43U,
  0xc881de7f7f7f8181U, 0x7f7f81817f8f817fU, 0x7f03817f7f817f7fU, 0x8e0b481081decbcdU,
  0xfd8ecf3a7fdc7f81U, 0x70e656bf81c2817fU, 0x7f7fe84d7f7f7f81U, 0x738114da8ff3957fU,
  0xdac87f9d92e4f7c0U, 0x81817f9c81e6d87fU, 0x7f0dd37f817f7f89U, 0x637fdc8191810881U,
  0xf711f0e70181f1dbU, 0xf0d6b4bee27f0100U, 0x1667fd1cf0c881fdU, 0xb3f3958bca190aeeU,
  0xfd74ea0de342f5feU, 0xe05c157f045bb0ffU, 0xf41ac80bd31314d7U, 0xed00e6defde5e620U,
  0x1b71ed0e0c043501U, 0xd4746270cffe27d9U, 0x7f7fa5d71b9d1260U, 0x2adc7f818a7fe21aU,
  0x3e13f4113adb24dbU, 0x60e2bade7f8bf6faU, 0x9d901f7ff3927fd6U, 0xceea0aeef898a0f0U,
  0xa78f40a160232fdU, 0xfd05fd2ef7f07eb4U, 0xfb030b1eeea809e5U, 0x518f207fbef00f8U,
  0xfce91b1efae206f8U, 0xfadcfafac30b2401U, 0xde92b16e62bf5d5U, 0xed0106dc19300efeU,
  0xe2a21e8ee1c33cdU, 0xe119fa08f609fa13U, 0x17d714e6fe021afeU, 0xfaf9eff1d8208104U,
  0x402d3d6fd0e1f2fU, 0xf3f9c9faadd9f6feU, 0xa05edee06e713e3U, 0x3d0110f906140728U,
  0x14fdf7edfa10f51eU, 0xecea001403dc15e1U, 0xe3eefc1114f40104U, 0xf7ff13130cfef819U,
  0x901af77f049d7fb8U, 0xf76ea4dbd50105faU, 0x17157fdbda840aefU, 0x16d49081d5257de9U,
  0xf7017f0ae6488601U, 0xb3e113fd4f3eec81U, 0x7f1f7f21d71212ccU, 0xf1386bd204f1030eU,
  0x48077d1421d949ffU, 0xa0f67f25c17f499bU, 0xb8d9d8fd1df415caU, 0x8196d0a2878dfc30U,
  0x7119d810ac502bfU, 0x4bfb7f9bfbfaf8faU, 0xe0ba3cef09fcfc7fU, 0xade0f5edf681f9f3U,
  0x21f0a923e34b1a02U, 0x128b7f06f009fbcaU, 0xf204fa15e7180cfcU, 0xfc15e119ff0f08fbU,
  0xee04182effeff9f2U, 0xfbdcfe0ccf0718fcU, 0xfa1721fef52df21eU, 0xf513041c08b607fcU,
  0xe14101cdbec21e5U, 0xfc13f406dd07fc0dU, 0xfefc150705fd0df8U, 0xc07efffd11a2002U,
  0xc425dbf6fbfaf723U, 0xf200d9f31e24e808U, 0x1103ecf307ec0c11U, 0xe070fe700f402cdU,
  0xfff1010ef4f1161aU, 0xde03f00108def1cfU, 0x71ff9e916effdf6U, 0x6060f0cfcfc0d1eU,
  0xae000001edU, 0xffffe472000047f9U, 0xfffff843fffffad7U, 0x67d6ffffe63eU,
  0xffffe85400000f72U, 0xfffffddcfffffe34U, 0x3f4bfffff9dfU, 0x41000000784U,
  0xfffff464ffffffb7U, 0xa200004627U, 0xfffffe5cffffffe9U, 0xffffcf83ffffffbeU,
  0x561000000a3U, 0x28a7ffffff81U, 0x743b00007637U, 0xffffe141fffffea7U,
  0x15bffffcc60U, 0x42880000002aU, 0x67fffffdeb2U, 0x625fffffb28U,
  0xffffffe6fffff1cfU, 0xfffffe6affffebdeU, 0x31affffe7bcU, 0x6b000000616U,
  0x1cc0000315bU, 0xb09ffffcc80U, 0xb7ffffe61eU, 0xfffff701fffffc5aU,
  0xaceffffe896U, 0xffffd84b000001e9U, 0x19c0000031fdU, 0x3201ffffe84aU,
  0xffffea48fffff697U, 0xffffe8a3fffff65dU, 0xfffffefaffffcfd3U, 0xffffd35300000154U,
  0x46bffffffa2U, 0x311dfffffc5eU, 0x11fffffbdcU, 0x5215fffffe7dU,
  0xffffca5a00000d7aU, 0xffffcdd3000002baU, 0x7dba0000cf0eU, 0xffffd1f6fffffebcU,
  0x3e2fffffd96bU, 0x542600000661U, 0xffffd7dc000054abU, 0xfffffd35000009d3U,
  0xfffff1170000453dU, 0xffffd74b00007038U, 0xfffffe5500000290U, 0xffffe5edfffff3e9U,
  0xffffec6cffffcff9U, 0xfffff9c2ffffffd6U, 0xfffffea600000092U, 0xffffe5320000058eU,
  0xffffff70fffffe11U, 0xfffff585000000d5U, 0xfffffcd1000009ccU, 0xffffffbe000060c1U,
  0x2c2ffffffe3U, 0x236c00005053U, 0xffffe1d2ffffff74U, 0x58ff0000319cU,
  0xffffe19d00000045U, 0xffffef45ffffcf96U, 0x322ffffef03U, 0xffffeb5efffffeeeU,
  0xfffffdc600004028U, 0x4e700000b9cU, 0xffffff4600000a60U, 0xfffff67afffff647U,
  0xdee61a10f932fe0bU, 0xfde2edd3e01ad8f1U, 0xf0f6e80feadfe305U, 0x3bccf301a1af0d6U,
  0xc1da2534f6dff1d4U, 0x1200214e1161aeeU, 0x2af5e8e40bdf9312U, 0xd307dadd1822381dU,
  0x38ffeaf6ed0a9df8U, 0x7fdac007e9f8e6f2U, 0xd4ffe8de0cd512d8U, 0xfeebffa8f6feac28U,
  0x28f3e30109cf00f2U, 0xfd11fcef410c1fcaU, 0xc53e7ec0ee1df04U, 0xb51f2846e7072df8U,
  0xc85512e91ee857f1U, 0xbeeccbd10ef4e802U, 0x56a31c19eb0e28dbU, 0x31fa110d31cd5419U,
  0xee05fcf21df7cf22U, 0x62401f51a070ddfU, 0x2007aaece5c0f411U, 0xf351042e11150001U,
  0xfdd833e80ef1bef7U, 0x2ec27fd514f528ebU, 0xebf8f4c5f40ce245U, 0xceea210e0a16d5daU,
  0x15c22cbba5f9af77U, 0xf0309ebfef737beU, 0x9fe9f928a833d4e2U, 0xc7de17eb1825e330U,
  0xf119360dda0ff909U, 0xecefd6e406faedddU, 0xf2fe000f0cdcdfc7U, 0xf6d92258ecc9fad0U,
  0x3b26070d271925f4U, 0x22fcf7181804f1fdU, 0x1210182e252112f7U, 0x3c10db0219d0293bU,
  0xc0e845c6b0014719U, 0x132dfcf081e7f2e6U, 0x21011ae705f51df3U, 0xbf201d0d10baf2edU,
  0x510c24ff25d703e9U, 0x2504f4f20725e1e5U, 0x33f12ac3ecf5ed03U, 0xf20daf0b070ff6f9U,
  0xf70c24221f39fe0aU, 0x8e2df3cf407db10U, 0xefe6077c10f415f8U, 0xeafc0beef82d05efU,
  0xeee04daf0ea0900U, 0x51dfac618c10c37U, 0xdaecf641fdcb3805U, 0x717010cf8ccf6daU,
  0xcf208e71be10c06U, 0xe6fb09fefc083caeU, 0x90bc5ed97301f18U, 0xfdef111ffdd6ecfcU,
  0x504270e07df8111U, 0xec0d63c2ea1becfeU, 0xfdfde220e5e7db2aU, 0xcef656f901fbcef4U,
  0x2edd1ad5010023d0U, 0x4709170e0231e5f6U, 0x15031141ff62c6e7U, 0xccfd0a051010f2deU,
  0xddd22f1fff2af6f4U, 0x1cc5c6e414eedcfeU, 0xf000fddd042e12caU, 0xf01a3d52dbe3f5d7U,
  0xfb26dff6e6e203e3U, 0x1a404931e10121deU, 0x13f9f610f2ee4810U, 0x16eeedbc5807f853U,
  0xdffa3af19137e4efU, 0xf90dcffb37f5df00U, 0x11a1f209bab77802U, 0xb60de91cca07d7d0U,
  0xef4ddd6adb1f1c0cU, 0x1ffbf1e71611ddedU, 0x2702b1382ebd9481U, 0xe418dfe8002fc6b0U,
  0x22c9f6e809b62ad9U, 0xf91ce41691fb2c86U, 0xd61a122224e9eee4U, 0xd1dbe450d114fcebU,
  0x6c0812b12523f622U, 0xe40d3211efc060fU, 0xc2330a010c070bf8U, 0xb20b0df5fcf6f835U,
  0x1c0012fb0af4ef03U, 0x2ed0040f8c4050bU, 0xf204ec237ffa171dU, 0xf1f304ed01fbd9e0U,
  0xde080e0113030d12U, 0xfa0f2f0e31fe53e0U, 0x2ee8c00b26fd0a22U, 0xd14f403fd080a04U,
  0xebffdb0b11233cefU, 0x2e14f90413002ddbU, 0x5f8103dfb082c2dU, 0xe120ff05cd12f826U,
  0xf218451b300b1810U, 0xe10ad704fa05f501U, 0x10060110fc02f412U, 0xc5f904cc75f9de18U,
  0xf1ef31e4fffb0df4U, 0x300623f8d8061bfeU, 0xfd0a13f8d0dfd408U, 0xe191a3b184ae5e1U,
  0xe70feef9d2c3fd49U, 0xe26b01f505bb00fdU, 0xbc2af86cfadbe637U, 0xf0f081fbb5c922eeU,
  0x32ada5e36f1360fU, 0x4b1df92417fb0a16U, 0x1c2b020b32edea47U, 0xff032ffa285bd3f4U,
  0xcff3113bcdce3af9U, 0xd5d20dbafff6ceceU, 0x9081b14db07fb12U, 0x222cee2bfde7fc25U,
  0xd5d7f92906270b08U, 0xdfd3dfef03e2dcd8U, 0x10fe0df1fefcf9f4U, 0xf3f6f9f9fb541103U,
  0xf649edfdecfabdfbU, 0x33fef7fb0c0cfbf2U, 0x1e58f602f1f3e906U, 0xfa0ffee601084310U,
  0xeff9e6f3fefcfdfeU, 0xf909b705fcfdedf9U, 0xff37f3fafbfaf904U, 0xf42c0a4cfff60501U,
  0xf516fd04f943081eU, 0xf9ebf1f1f414f6f8U, 0xf8fae9fce815effaU, 0xfef5edf8237fdf06U,
  0x400aff11084243eeU, 0xfcfffc2603fb6bf9U, 0xb35f1f1f50c010cU, 0xddf0f3f22afe5cf3U,
  0xf6f42027bcf7d009U, 0x3065ccf50ee63404U, 0xf9feebee1cefc2a3U, 0xfd1dd71a020508fdU,
  0xfd040c1124eec4d1U, 0xf83c191bdce3c6f0U, 0xe928fc14292be609U, 0xe9f611ea5cfdf9deU,
  0xdbfacbf9d609b753U, 0x3111d002e9d6f9faU, 0x264f0a2be61129b0U, 0x18ef1b3c071d9cb7U,
  0x1ced426b5e0faf5U, 0xf845e2f5ce0cecfcU, 0xffb73712edeffcffU, 0x91effa96080dc8e4U,
  0x48e5e52a3323ed7fU, 0xe7f3fd3d1117d8e8U, 0xdab0f432faf00ceaU, 0x8110efe4fc17d224U,
  0x418f4f7db09fbd8U, 0xf6db0ee6fd1016eeU, 0xd807e1f038160201U, 0xdedce30e50152128U,
  0xfce40e11fafb0504U, 0xfcd2c5f927e82223U, 0x1c1d0d07b5f4f401U, 0x2726e316fd221dfaU,
  0xf5de6dd3ec0fe9ddU, 0x55030b15f9e9060bU, 0x231cf10335d3c501U, 0x90bf7fd351d0ef4U,
  0x13ea0112c312f906U, 0xdefa2801fef626feU, 0xdbf60c0deb0ec9fcU, 0xfb14fb29d30800d8U,
  0xebfff223f4fcf516U, 0x1a09cefd0009ed0bU, 0xa1003dcde170dU, 0xf7f8fb7f87faf116U,
  0xfcfbb2f7f40cefU, 0x12fedd01d5f30912U, 0xde200e01e30329a1U, 0xf7eed0fc0dec0ce9U,
  0xadffbe6ef004509U, 0xaff1bfadfe612fbU, 0xfbfdfee72a07e1fbU, 0x4080fe9020afffeU,
  0xfc0beddb0d0626ffU, 0xf006f70cebf3000aU, 0x282f1ff4fd0f1e0eU, 0x352e50bfa030306U,
  0x2ddfb11e1f807efU, 0x1712f403f0f02206U, 0x8107fef8e7c72707U, 0xe1b6e42e163221d3U,
  0xe501f8f30defdd1fU, 0xf83d45fbfa18f503U, 0x24e92919a8c507f6U, 0xed21fad5eb1024d2U,
  0xeeedf0300235df24U, 0x2204105a41fd122fU, 0x391c293d1d16e246U, 0xe31c8a2d170b2d1fU,
  0x6e6e1e4261fe5f5U, 0xb5d4edcd0919c9f1U, 0xe2130e1feae0fc2bU, 0x11a4f6ed281fdde4U,
  0x86414272c1219f0U, 0xe825132b1ad8341aU, 0xbcef0b30ac27b7dcU, 0xd915ccddd50ff03cU,
  0x13d52f0801290dffU, 0x20faabd6c7f4d922U, 0x60cddf8e643cef4U, 0xc8022dd60f08e81fU,
  0xc91f10011202fb50U, 0xf60ad80831f3050bU, 0xd1bfff38fabb1dd3U, 0xb5f97fb31f0042dcU,
  0x133a254930eed20bU, 0xb0cf5ca2128dc1cU, 0xf80ec3fb034ee038U, 0xcfefcd6d106e110U,
  0x1c0de92d081e0662U, 0x1ff6132a201901d9U, 0xd3d41e13160df211U, 0x130424e110f10a24U,
  0x283acaeee1f35105U, 0xa4eb14f90932fb14U, 0xc408e3f8cfeedff5U, 0xe619f5ebf4f9f430U,
  0xc607fcf0cbdbc4f9U, 0xef01d5e327c4fb27U, 0x613feff3777e2dfU, 0xe900031601ecd0e1U,
  0xfdf9eac70f1cf6e9U, 0x6ed11f0c218fbcaU, 0xda1ace11c126f3e2U, 0xf7d3fff235f1e3e9U,
  0xf12cd4f0dae7182eU, 0x16e1f612e70dedafU, 0xd1c0e909ddf3c8f9U, 0xdb0f13fdb1faf5e3U,
  0xe020c50f1dd9e8ddU, 0x81f39d23d713fbf6U, 0xe9fffed1000ee62dU, 0xe4ee0576e504cee3U,
  0xf0311416d53bf4edU, 0xffee05cadd0d12ecU, 0x16fc222111f6afffU, 0xe5a40a43feeefec4U,
  0xd01608b7fb6b3300U, 0x1035bbfded0223f4U, 0x2f0212d9f79d51d4U, 0xb0320741e6e406eeU,
  0xffd44a454e02026U, 0x12d5faf40019f4f0U, 0x1cec0da1da01bc14U, 0xf63dde0616ef06e5U,
  0xd3d212e3012109f4U, 0x340111072e1bcd1eU, 0xf8bcefe101132020U, 0x22390af63bbb2951U,
  0xcaf481dffc203605U, 0xf712141ebf3f0f4aU, 0xb71adb0e060d3f1aU, 0x2719f0ffff1422c5U,
  0x7f30bf903ecb9f8U, 0x47fc0123eec4fd17U, 0xe9fd17fdf6d805e7U, 0x15f0e6b7ecf607b7U,
  0x6180cde12002014U, 0xfd232889131f18caU, 0x34ed3005f824fd0dU, 0x3e11d010efede1efU,
  0x9f7e5f607f60b7fU, 0x4f1513290e094bfeU, 0x12230e11e629e000U, 0x1317f7fe20f5b8fcU,
  0x12cc041e411e23f7U, 0xc9431713ffec0affU, 0x2018edd9effdf81bU, 0xf7f9101e1230090aU,
  0xbf9013023fb3dd3U, 0x15e216f9eefa213eU, 0xc1001def3211fb0dU, 0xf5efdbd800fa220cU,
  0xce05bf14c2aaf241U, 0x1d063729f3b72913U, 0xd54fdde01d3baf9U, 0xdd147fb35af7632eU,
  0xdff6312e1ce550fcU, 0x2601c6e7e82bbde3U, 0xe8c87df8d110f3a5U, 0x58d3e9faf610e9bfU,
  0x45c63ee7ef19eae7U, 0xccd1e41902370a04U, 0x161994fdeb1bfbfaU, 0xe7cdf5ec1bf701e3U,
  0xdcf824bed2af38bfU, 0xd7d51612d0fc090fU, 0xec7f39f50bfceff4U, 0x1d21a2016012728U,
  0xbd2f30eff909040dU, 0x240ce0df1f13f9fdU, 0x180d1cf0653819b6U, 0xf9150effe9f8ddffU,
  0x45fff7fceb12bddeU, 0xa0ade1cc2f303f6U, 0x2e06ca010a0d2cd3U, 0x20c05fff5131cf2U,
  0x2e69c7e0613be0cU, 0x181ac6faef051608U, 0xedf5075ed93b0807U, 0xd61af61cec0a06d9U,
  0xebfc60f110d14deU, 0xf06f5f9df21eddaU, 0xee0ef606121cce2fU, 0x190cf8d50beb06d7U,
  0xde3e90b23cad5e9U, 0xe36e8e3b0fe550c8U, 0xdd34fefd1bf153f6U, 0x2ef7a289d20b17d8U,
  0xfdf5ea2af9f22b2eU, 0x2452fdd0e0c2f2eeU, 0xec233d2e30d2ecbfU, 0xd433ed378ecfd503U,
  0xde7dc00ef17e6fcU, 0x142232c5c3f1f4e9U, 0x48e50aa90ebe501eU, 0x2c02f31f811c26f8U,
  0x8cd7f515044c0437U, 0xcf3c2805e5f61816U, 0x35598312de23e4f4U, 0x6c20e3122cad6ebU,
  0xddc090dfc39d3c0U, 0x323fea4d0db8f3edU, 0xe4fbf22fdfee0c5aU, 0x2724e9faf41205fbU,
  0xe10266ee52d3ec46U, 0xfaf5ec020e195549U, 0x1d147114e6107feeU, 0x64e905fc050507bdU,
  0x3403370204f60409U, 0x20018f011281e08U, 0xda0e45f5d71cf927U, 0xeb082605fb610940U,
  0x10fe3030a0c0fefU, 0x175bfef1e90805e5U, 0xf0ec54a9d8c3ebdfU, 0xe327483e080dfde4U,
  0x12180bd7fe13f25eU, 0xe1f6f516f7d80d12U, 0xf60b5201f7c3d90bU, 0xf21b54f20027fdf2U,
  0x2701ebe3f0ebc326U, 0x2d60146f008e93eU, 0xd8fadbfa22281a1bU, 0xf1c101501e7e3f9U,
  0xd50408e07f090562U, 0x22ff3604ddc0f723U, 0x1113f81a369d23fcU, 0xe2e5fb220200f3fdU,
  0xa2de36d041ad5f2U, 0xdfea0bfeeff4dbeeU, 0xf7e51b1be3e83940U, 0xe80cd0e9f419650dU,
  0xdd0be7eaefdc09e2U, 0x121002f50be70ec9U, 0x221d0ceeef07eff7U, 0x2fa050ae7ff10f6U,
  0x3515e1a105dbdc0bU, 0xae0e103182310efU, 0xfe3cea1318d8bff1U, 0xe5c9f029fc1315c0U,
  0x2bdf150cd71dba0eU, 0xfd2bcc7585f4cdf2U, 0xf4f107e144e9f347U, 0x19e79df2f6c812c2U,
  0x316f42ecbbefaf9U, 0xfffc3c4ee632ef2eU, 0xb4ef0b48b7fb54f9U, 0xa11c0bddf6e1e705U,
  0x2810e1dfc118b2f0U, 0x103e33d1d27f11cU, 0xdb05fe18031ef9feU, 0x2ec03f225e40ed2U,
  0xfcecbcf811f5050dU, 0xe97f0fdc0d3df7c8U, 0xd61248d620dad700U, 0xb2fc23c6e8c6f109U,
  0xb3d1c9ed040a0fefU, 0xf90c0f07f6ecd7b7U, 0xecfdff1ee2f902d6U, 0x22fc0e1d09c5fae2U,
  0xe400061e4f1e0a0eU, 0xfee5021cdde0e82fU, 0xfe0914f3f5fede00U, 0xfa40d730e81bcf26U,
  0xafc050ed5140ef2U, 0x1ce7fbfad602f1f5U, 0xf957ffa713d540f4U, 0xd6cddcd6121b0bffU,
  0xdef70ab208928109U, 0xc031fc00f704eb01U, 0xea0a1d23eccf172fU, 0xb0daf300c0350801U,
  0x2102d2e2f31ed34aU, 0xdfddf30ec31f01fU, 0xe6d7cffbc4d122e7U, 0x1417163b32f33c1cU,
  0xfc0cebf716efe2U, 0xe76ee4ec19f91fddU, 0x1df0eb0e8115f305U, 0xfe08ec3d1a05e62eU,
  0x6def0ddd519eadeU, 0x52233ef2110ee820U, 0x9cfdb8f92bfae326U, 0xaa1421e10900e8f0U,
  0xf9f2100320d2b9f9U, 0xf5120fd4081853f3U, 0xeb95ba0ae8c11beeU, 0xf508ff09f7e50406U,
  0xee10170aeedddbdbU, 0x25ffd21324edfe3fU, 0x322fb8de3ee7add8U, 0x1de6f30df3470c10U,
  0xffffd6760000973dU, 0x41a4ffffffb4U, 0xffffaed00000622cU, 0xffffc03700002d0cU,
  0x16e900003144U, 0x573700002d2bU, 0x4abaffffd41fU, 0xffffcc8e000033dbU,
  0xffff83830000193dU, 0xffffd403000033d0U, 0x2667ffffb6d9U, 0x4e6f00008baaU,
  0x711966d9497fc003U, 0x29d6f91f8bf8e6a6U, 0xe2202ca099c0ecf7U, 0x20306cf28e9feeeU,
  0xdce01b1905f00f81U, 0xde2d0e05d6e807e7U, 0x1414f9d156f8d6d0U, 0xf07fc40ad7f4f9b0U,
  0x54c5d4e9e81327fbU, 0x8bddfc6f4e035c2U, 0xedd62786540bd634U, 0x6e00d2810ae20ccfU,
  0x317f03dcde02e711U, 0x960a400410e114e0U, 0x1303e1f6a10efff6U, 0x15b9e8d102fafbd2U,
  0x12d91ece1d0ff614U, 0x20efd581f9d505d0U, 0xe4e24eec4ef0f4c1U, 0x81c2d1fd8d53bfaaU,
  0xa0f103f4f1c1d41aU, 0x418929f3908b9febU, 0x9d9a5cb1f5c6f5f5U, 0xff16d6ba7f0ee39cU,
  0x11460728b647041eU, 0x4656b5007f0ce43fU, 0x3bd6e905fee7e7f4U, 0x2d3a0a7659b5c60fU,
  0x3ad04833c1b7fcfbU, 0x4ae349537ff5ef74U, 0x3b0107205e111218U, 0x60012a190bf611c9U,
  0x61c1c693e15037fU, 0x14fc0137021733fcU, 0x81e52ee3df1f0930U, 0xf42cfe144516ab08U,
  0xf2ee18e12b17f140U, 0xcff5d8441d38f8c6U, 0x81f51ecee3f5e303U, 0xf0110f7fd0f3ccbfU,
  0xcdc9cd22a721141bU, 0xfc1ebd84611ca91U, 0xb60d2c0f6e7eb91U, 0x3b03fa3c81e2090cU,
  0x1bfdeaf407d405c3U, 0x12ea1ef314ddf87fU, 0xd4b7fddec9b6ed20U, 0x711e220d2e20deebU,
  0xbcb131fd00d301dU, 0xb98122d2ea251540U, 0x98226218200b0b03U, 0xf11e33fc1afa1dfbU,
  0x16c4b5217f16dde4U, 0xf7e520b5edeceaf1U, 0xc1efe1cd0cc2bcbU, 0x811810d259f3322cU,
  0xf210312224fdd4U, 0xf1f0c815c9b03826U, 0xfee627a2edff8e63U, 0xec3aa28173fff4c1U,
  0x8fb1a39b80e17f0U, 0x22815adee3e91e6eU, 0xc14842083cf5f2eaU, 0x2127edd0260bc761U,
  0x2715e9810d1c0848U, 0x27ff3a4e04b6dcbcU, 0xe1ab41ce4fec82dU, 0xe2597fc6030017d0U,
  0x6ee8e92d01e10b1eU, 0xeffff8ffdf2e201aU, 0x7f51fb4845bb2052U, 0x130449f106b3fee6U,
  0xc3c4f526cd430d9aU, 0x8101f8dbadfdb72bU, 0xfd05014e0c1ccbb1U, 0x11dc1c0f1f116eeU,
  0x2e917ffaffe4006dU, 0xc94a1dfa2ee51fc5U, 0xe19122818e13557U, 0x7f8df609ad070932U,
  0x54ef92d60f0dcb23U, 0x9dd130a1b08002bU, 0x94904103d1f6ef81U, 0xf8f8fefc1a31fa00U,
  0xb41f450ebee4bdaU, 0x93f82f81e8f0037fU, 0x4eb5ba1b126e2bf7U, 0xd70897d0cd169aa8U,
  0x3def10811b7cd5ffU, 0x9cccb15d1166b570U, 0xf0aa2311e8081640U, 0x81e5fcf4d823f839U,
  0xcdf6462300aa9f48U, 0x11f139282fc92190U, 0x22108104fd5bf509U, 0xbe5f8b0901e4582cU,
  0x3ea4df637ea027fU, 0xd8deace8cef8e825U, 0x491c1f17fcf51ec1U, 0xf01ae8a17797417fU,
  0x1801ebe538c2f609U, 0x393a27f9f1106023U, 0x8fbbef042226dcedU, 0xe0d009f681e6eb0fU,
  0xf5031926fbbe030eU, 0x5221bfbe026d92eU, 0x121403f6f9dbe421U, 0x6ac7ffee702ff89U,
  0xf51dffd9e1a714e1U, 0xdcd320d92220e181U, 0xd74c5e06c2bfefdcU, 0x4f6fc1369ed18fcU,
  0x1be2eae55a962407U, 0x8ae9812c02d0b5a5U, 0xe8a9ff001638be48U, 0x7fc9a35a95460de5U,
  0xbbe627fdccde0540U, 0x22e91a15dd250d49U, 0x3f2321c4cce4277fU, 0x2bf65d064d11eaf9U,
  0x90a2ed517f8077fU, 0x4c8f8dfcff11bU, 0x4e1154effb1c03d6U, 0x15a23dd4d2c314f7U,
  0x89f32be5e202a08U, 0x7be2a28130aef540U, 0x1114dfe34ee2d6b6U, 0xef99813f9d000de6U,
  0xb6c4148d180907f3U, 0x9db1de68adb2e00U, 0xc2104698951c7f61U, 0x25109594240db7f3U,
  0xe7e3c7490eabb536U, 0x7d121e7ebe02a7fU, 0x1439f6e13020c9b6U, 0x9b03f3193d214313U,
  0x367f73505e27c3d2U, 0x100444e83f882df8U, 0x15170ff11c7ced10U, 0x2bf90a0a091d6606U,
  0xd003e3d981fbeb2bU, 0xed4017c74f3e1f17U, 0x221e143653dd2681U, 0xe2f3301bb0fd1bfeU,
  0x8c40ec6fa2f0bcfU, 0xccba10d081ff0ecdU, 0x19f6fa2405ef07daU, 0x16e006260614da0eU,
  0x1ddb1cd0a72e2281U, 0x3d0bf1151bd9dd09U, 0x250806c831bcfeebU, 0xabf72be1d751d381U,
  0xdeef45fd252aa40eU, 0x1305dbe0e6041515U, 0x7f59230c3ece0733U, 0x2ade3a00eb0bfaf6U,
  0x122958acb108118U, 0x3bf01b96e320ec35U, 0xeaf3f74e07390f45U, 0x7f1506f80b1f1b01U,
  0x4230011e2ff302f1U, 0xe5f707e91004ff0cU, 0xe34a3725fae3d7daU, 0x9721251647f21b10U,
  0x1a09427fee2448e2U, 0xfd12d7b81503a409U, 0x30fa1e81084be422U, 0xd6edcb6f06e6e41bU,
  0xcf602acecfe0f316U, 0xf4e3cf40c4d1fd3aU, 0x6c57fe3e0a4ede5U, 0xf52b06d13109dafeU,
  0xe4f2ff7f5fc52eadU, 0xe30b5556d1091206U, 0xdd18c3c50cf0fff4U, 0x7f39c659380890cbU,
  0x24cacd05e3dd0823U, 0xcdf9110bd6ffb80aU, 0xc8ea3dcf5cef3781U, 0x37454119ddc41ff0U,
  0x9ee90217213e2dc0U, 0x13262b29121713b0U, 0xc7172df907813a27U, 0xf4b01da2a6ec090aU,
  0x52f2daf89f06dc21U, 0xf4fca181898dfcd4U, 0x22e2ed1b4d0bb5b8U, 0x12b4f4fb201a25f1U,
  0x7fd8e5c236c4ba1fU, 0xe5e3293fb9e10617U, 0x1081e1e518042d3fU, 0xaa0636f1f60bd5e3U,
  0x279f1de3be10e00eU, 0x754293fc721e5e64U, 0x157f16550eaca70fU, 0x39f2297f08eb44f4U,
  0xfffdc6bdb3330a11U, 0x7a36ed061704b705U, 0xd2f1fedb0af3f9e3U, 0x7f26ef6162eeb583U,
  0x692e325d8f434e8eU, 0x27fb4f61146f13aU, 0xd143140eeef3da54U, 0x9e04e5c3f31f22d5U,
  0x1ff2e7b59b02c6ffU, 0xdae2d2f64d9ebfaaU, 0xb74a1ce22940ea7fU, 0x4c422019c311f5d6U,
  0xcb5c0607478131eaU, 0xcb30c9eec72944fbU, 0x3d1cdb38ab823d2U, 0xcf03e2be510884ccU,
  0x32300ef29e33581U, 0x2b1122c920fd9bU, 0xfc1306b1e101ebf3U, 0xcf7fed1f434d47fU,
  0xe33f0ae305fe4a38U, 0x816e709c56254b03U, 0x3525e8281ff71f0aU, 0xcd8105ceeb122e25U,
  0x79fee3efa80de2e6U, 0xde5dca6f7bcdff7U, 0xc516be16178124f3U, 0x174c21104d3f2ae9U,
  0x9ce50ee8fbe91edfU, 0x2901c2e9caf60438U, 0xa0dd29067fee28d3U, 0x26fd3cf0fbdeb420U,
  0x13e7093bc4ddfce0U, 0xb8134cbfbef1554U, 0xf33740012b0bf3d6U, 0xa66be14a10d3d323U,
  0x1071c35981f7ca30U, 0x93d41f71a1d0c512U, 0x331142b2b1b05f0U, 0x81ca37d6e2d6bf19U,
  0x1b3d43766a2dfceaU, 0xeea653db06f4edf6U, 0xdc3c31f1a81df07U, 0xaced913cf557a1c9U,
  0xfb1f45111a1f01f4U, 0xe0e939b5fe007f4eU, 0x6eb2d6162936fd56U, 0x102022fd90fd2db4U,
  0x1637c6dfc07ee911U, 0x30d6eeffbe6157fU, 0x14adeb3d5eb2fc18U, 0x1b16424604e50afaU,
  0x2b30385a19d8d27fU, 0xb4ee24a7ff8a78eU, 0x2cb21c4654dffd24U, 0x26e16558f70afb16U,
  0x1202f42506f60e32U, 0x83811bb7ce14eee4U, 0xe1e338070ef4f305U, 0x2d3f1153102b1e04U,
  0xdd5030b545b057f1U, 0x32e3d90c208189e3U, 0xf3cfd7ff06ed05f6U, 0xce25d50c7ff70f0aU,
  0xf51823e00eecef0dU, 0x49bde6c616b3e50aU, 0x38d3fdcc1f018101U, 0xfcfed98c55e340d4U,
  0xf8ddf5492e0dba72U, 0xf20e0926bd15d747U, 0x9ef2f0b3fdc5f47fU, 0x1b388125d48d40cfU,
  0xea3578006af02a34U, 0x16fce80226f40501U, 0x9e2d8202213e661U, 0x7f03f041be0aebdbU,
  0xe80dd1bbecd9dc40U, 0x907b50fb8aadbd9U, 0xbffde5ed3ffa81ebU, 0xdd260d2c0ae836a8U,
  0x3f4a30027fe731d7U, 0xbb5cb04e822092aU, 0xd0ade8cff4532ca4U, 0x36ac12a5613cf81U,
  0xfaa8ea2d6bf8f105U, 0x270c6a3ada3b071bU, 0x1a50ddd0efcf40bU, 0xdcc30a630fcffcf7U,
  0xfdfdbf14047ff6dbU, 0x81cfd3d710dfd4f2U, 0x160a1b73f50b48ecU, 0xc0f705f78b9e0024U,
  0x17cce116e3d114fbU, 0xd0e1f865f3da1007U, 0x2424f0cd147f3910U, 0xeb08c3836e443746U,
  0x7629f04368f54281U, 0x70831f8b7be3f21U, 0xf0147deed5a50effU, 0xd1094d0c2303a4a4U,
  0xedcc865dec37f25U, 0xedfa1dea2235f712U, 0x7f05e52718df43f0U, 0x12fe27e9eeee35efU,
  0xd92c0f63c10ceb81U, 0x22debec252fcdf0U, 0xddc0a9dbeb1ab94bU, 0xfef3ff47f0f60781U,
  0xfa12f3032c4f04fbU, 0xcbfb932100edf21dU, 0x460322d618fd32e5U, 0x7579814c11fb0e63U,
  0x150fedff27ed0ad4U, 0xd9f22ade2eb5080fU, 0xab968106a305e9ffU, 0xe959bb21e9ec220fU,
  0xddd4e52812915c8U, 0xf24b6bf2c4058f0fU, 0xdb8c643e804d9daU, 0xa4f54981b2e90fbfU,
  0x820d1d9a600e6312U, 0x250be7b51be350b7U, 0xfd23d4cb08ffd8f9U, 0x322c7ffb3e97ecffU,
  0xd9eaf0050d0e19feU, 0xd50b1aeaff41f35aU, 0x407fb064e71edbc0U, 0xbdfcc608bdbde926U,
  0x25dcdffff9290e74U, 0x7f3dc8fe22cf0c55U, 0x59ed69d90634e1e0U, 0xfdf239ed24ef107fU,
  0xdec3cbe2c807f12aU, 0x333f0e2d13e73ec9U, 0xd51a169620291e16U, 0x1b0b1a0d4aef1c81U,
  0xd8eb0cc9c5dd33deU, 0xc91bb09eddd21f2eU, 0xc7f260f2e22e4efU, 0x2500e5c587fa47ddU,
  0xf701fe43eef2ff81U, 0xd5deea13af5a0af0U, 0xf4e8ce18f203d6f6U, 0x3fc1f1151fb8ee37U,
  0xe528d03db3f9ec23U, 0x81d41edde5c80d4bU, 0xf5f20adadd180c13U, 0x68091f354238f0d3U,
  0xd7237fe0ead5080cU, 0xd8f65f33d31cc226U, 0x2fde4b32810c1a04U, 0xeadfefe92fa7b02bU,
  0xe68e4197f401bdecU, 0xfc0b04b3981d002U, 0xab47d11dde5de302U, 0x247fd75ccaa8f0a7U,
  0xc9e9fb0bf60f376cU, 0xfa0808554b62d1d6U, 0xe83e2710e0f71efbU, 0xe00ad10fa97e1e81U,
  0x113764cc06d742ddU, 0x1e23df7f03c6f422U, 0x12de0e0fdc08d52aU, 0x935f13c3c12ec02U,
  0x1d3315ecd711da00U, 0x5150cca7002512beU, 0x247a7fbe28fa417bU, 0xf781e03a31b90b36U,
  0x1064c8b53c2c43c2U, 0xea1d26210c345802U, 0xe530a9d825e3e6faU, 0xc37fa12d4df2ff8cU,
  0x4dbec1dfe3fef74aU, 0x18106e504d2160dU, 0x16152ef8f4030109U, 0x1915dcd70dd2ef27U,
  0x6ea222fb0ef09e5U, 0x12814fc5f2f31e59U, 0xd84d2f1237ff11e0U, 0x1e25f21dd08100f0U,
  0xe8361fe5e8fd0311U, 0x6a28bb311af9e725U, 0xd66b35f5f0f6ddd9U, 0xaffe293e42f120d5U,
  0x60e517f10fc05ffU, 0x150bb10ae7f818efU, 0x2fef9093beb81a2U, 0x158295a180ce8ecU,
  0xf52eb5e00c140411U, 0x3f6bb11c4a08ed31U, 0x4a81ffe10ce5182cU, 0x12ebf9fcdd0e2002U,
  0x7fe3f6dce8fb1ec6U, 0xf0252520001411edU, 0xee22fd1404ede5d5U, 0x7fe104fdd1e0ebe9U,
  0x4a06d7ef160e14dbU, 0x4b43bf2e9d3dc0aU, 0xf183d3f9ec0147a8U, 0x81c077b8e7dfd8e2U,
  0xf012d9f8e2f5edadU, 0x670202a72e72881U, 0xd1e0f2e8e5bf0d41U, 0xf338dc2bf1ea07ecU,
  0xe102080e3aea81ecU, 0xdb2e4473f43c40a7U, 0xf0d5a15e2814df6U, 0xd30d8beed391dcf4U,
  0x1d7313b6245f0a58U, 0xc2a48a31840c9f1U, 0x4309e48112eead26U, 0xa928d54903f5f82eU,
  0xffdcdb3dc5e130f9U, 0xeae1027613810ce8U, 0x1911199b2a625422U, 0x314a70bc0bc5f8f9U,
  0x4c145dcbfa4dd80eU, 0x67f43c1292c1f69U, 0xf92e0af0eef9df14U, 0xe3ddb921412ff481U,
  0x130b0ad5e9d7f300U, 0xf89e01f393ca1031U, 0x2c7f31b78df6c7a9U, 0x4343072fd072027U,
  0x16fbe18114f69913U, 0x17ea06960059df53U, 0xe70bed67fb50ec16U, 0x1bb1f31eee97ea0dU,
  0xdbe3ec3c4f6120fU, 0x63cba3977feae312U, 0xdf25d0e8faf718baU, 0xf47bdb377f0504c0U,
  0xb4f525e8e4011ec3U, 0x3d0d0ace10413c0U, 0xfeb4e2cc5610e5f8U, 0x3cfff981d9f417ccU,
  0x19ba0000ec30U, 0x14e8ffffff2dU, 0xa05d000000c4U, 0x795900000c5eU,
  0xb71e000050e9U, 0x553b00001642U, 0x4357ffffe9cbU, 0x4d30000029baU,
  0xfffff06200006e0bU, 0x58a700005a40U, 0x38b400005001U, 0xffffff770000309fU,
  0x4c9100004588U, 0x4224000033d1U, 0x666e000036d4U, 0x2ded0000353aU,
  0x24f000002b39U, 0x16adffffffe2U, 0xfffff1ddffffee86U, 0x2bd50000456eU,
  0x24bc00002eeeU, 0x86c300001485U, 0x2198600001703U, 0x508900003ef8U,
  0x3df8000024a6U, 0xd75ffffec8cU, 0xacaf00001ea2U, 0x2573000008e8U,
  0x163200002f1bU, 0x25e600004108U, 0x56350000165aU, 0x3ea100001d34U,
  0x2c83ffffd380U, 0xffffec7d00002406U, 0xfffffff1fffff6ecU, 0x48bffffe420U,
  0x48b000001176U, 0x149b000057acU, 0x60cd0000367eU, 0x451c00004ebaU,
  0x15000003cd9U, 0x6884000042d7U, 0x2afe0000483cU, 0x2d9600002ff7U,
  0x5b43ffffe796U, 0x127900001f30U, 0x21000003dedU, 0xe4d0000144eU,
  0xa0490000273fU, 0x2d1cfffffc47U, 0x39a900004d6aU, 0x500cffffb1aeU,
  0xfffff0d200000986U, 0x56300002c81U, 0x315d00003682U, 0x615900004dc9U,
  0x1ae7000024d9U, 0x592a00002711U, 0x5eb8ffffffa6U, 0x4a1c000040edU,
  0xfffff13cffffec9bU, 0x1e7d000047b6U, 0x3a6200004b8fU, 0xffffe920fffff0eeU,
  0xfffff511000059e2U, 0x2bdd00002f55U, 0xffffedf200002806U, 0x5be9000034d9U,
  0xffffed19fffff631U, 0xfffffbc6fffff68eU, 0x6631000034a0U, 0x11f300005225U,
  0xf707de3788fd01fcU, 0xcf38cfe2eb4fdf3U, 0xf602f609ee0b0c00U, 0x1f07dd0813f2f0f6U,
  0x41508df0c181f0eU, 0x12d1ea9406ec2f0dU, 0xac70614eafe09aeU, 0xa100f7f8f1fae9f3U,
  0xa1cffa180a301219U, 0x958edfad5d9ed2cU, 0x81fc170ff50cee0bU, 0xefe37fe8d20502e6U,
  0xfe130df0b0280003U, 0xcfefa0ffe182716U, 0x110504fe190a0013U, 0xd5bc1214db06070dU,
  0xfa27df24f51bf8fdU, 0xf10180328042115U, 0xde2623cd7f7f0fU, 0xdf02cd32c5962aadU,
  0x29e8ace7c4050fecU, 0x7ff996e0c01117b5U, 0xe5fa0fd17ff32503U, 0xe48181ded9fafa7fU,
  0xbd81fefb282eebefU, 0x9d46a7f4e715dbe3U, 0x91cd81364e7ffd05U, 0x59c7fe0b5e10a1fU,
  0x3e057fee18e03013U, 0xd2ea49f7810df481U, 0xf907fadc8109fcdaU, 0x7fc606ba1c7f8122U,
  0xe003fbd77fcecff2U, 0x78bf7ff1f27f1212U, 0xffcb12a134b75b05U, 0x447f69de4e113c2cU,
  0x170efd2c1bffffeeU, 0xc0e9ffef90c72e4U, 0xf915d01720f509feU, 0x1bfbb20909e8feecU,
  0xdf020df011429f8U, 0xfecfe68e01ee0418U, 0xf80202e3ea031135U, 0xa7030b05f1e61ce6U,
  0x812af60ff1f9fb1bU, 0xeffb26fdf5d604efU, 0xbfc2307e6eae70bU, 0xe3e510e7cff30de3U,
  0xfe1901f0b81f031bU, 0x142b0a0e0716b1cdU, 0x4f8fae514fcdeb8U, 0x212b1005090cfc0fU,
  0xf7f7cf150615f5fbU, 0x7f0a05181a0b2931U, 0x7fc03018b62efae9U, 0xf58cce247c781381U,
  0x37cabdd60de61300U, 0xef7fd6aecfdbaf18U, 0xd17f10eff37f25ccU, 0xb80ea4e0f7057ff3U,
  0xcfe8cc7f360f4e1dU, 0x8aae5b48e844f5e5U, 0xafbf48374875c204U, 0x7b7f69f0eefbe77fU,
  0x5cbcf0da221b18fcU, 0x81e64a9030bd7f96U, 0xf327f0e9632afad8U, 0xa82e7fd11fed7251U,
  0x246c7dc6d7d011f6U, 0x818dce7918ff1f02U, 0x47f7f8181d1596eU, 0xcc02f5dbac1d2d23U,
  0xbf7f7f2fd5daa17fU, 0x95edf6818125815fU, 0x81c67f9281868181U, 0xd2ea447fb47f7f7fU,
  0x7fa3817fbc8781aaU, 0x9e71fd59a17feeb7U, 0xb3f27fd77f7f817fU, 0x7f0eaa817f657f7fU,
  0x3cf4617f7fa0ac7fU, 0x9e4ef82817fb39dU, 0x21ccb59b7f7f7f7fU, 0x687f2d3c57dcb19fU,
  0x817f897f0f7f9584U, 0xdfbf91c081d04949U, 0x8110817fc97f7f7fU, 0x1357bd817f097f7fU,
  0x81c6d1042ecc7f14U, 0x3cab819a64817f81U, 0xd2ca452aa43df6deU, 0xf57fb3220181dc99U,
  0x387f977f5c7f17f7U, 0xed92b29ae2ccb119U, 0xd7ff0efed07d1f7fU, 0x3316a2f17f12faecU,
  0xfb59aca5281a4bf1U, 0x8ea4bb6df049e8fbU, 0xad7f41512ca27f03U, 0x81f69aecebfa4d17U,
  0xd87fd77f2b140cf4U, 0x8fe7f381287fd78fU, 0xf3297fd2552c7f7fU, 0x4598e9d425e80193U,
  0xff810dd6dfc53a13U, 0x4f7fd9ed12f210f9U, 0xf4bbe7962dd45c81U, 0x47fcfa7f091c1602U,
  0x1502febd0f1d07f0U, 0x8fa810332ddfad5U, 0xf801d30deb090dfbU, 0xf503c60e15eaffe3U,
  0x20fd25e9e01c43fbU, 0xbf8de8713f6b309U, 0x19eb030ff00b1737U, 0xaf0b31f9e6c617d9U,
  0xb3c0ff11edfc110cU, 0x11bded0bd8d9080cU, 0xefe8e50b01dbeff1U, 0xece80ae902090e0fU,
  0x717fe06fe0900fcU, 0x1281f1f06f965f5U, 0x33081df40cf9e5baU, 0xe6f20c1c03ea0217U,
  0xec116132e4201215U, 0xadf0f8f8b708fd59U, 0xdef97b81a67bd420U, 0x7ffb911dcf6bf8a4U,
  0x11ecaed829f52af3U, 0x9f0381d57f2022b6U, 0xa0040abdfceffce7U, 0x7ffe9c0ddc23dcb7U,
  0x7f5d04e41a00d9e2U, 0x927f7fe7c181e8d4U, 0xd038911c34b60103U, 0xfb3d887fb6d481c0U,
  0xe9fca7ec76e30e9cU, 0xf1cea0e20506f4c5U, 0xf2ffe7eb2a1cd4faU, 0xc17fde7f17ac4a81U,
  0x2500f6e5c6cdd8efU, 0xb10eebdbe2951923U, 0xeeea22990a7f6c0aU, 0x88ee060881120322U,
  0xf6ff00c6812c0be8U, 0x30a8f03f855fce8U, 0xf613e3190b040afaU, 0xf5f4ec1414e4f9e8U,
  0x11f208f4f82d251eU, 0x2cf2ef810eeceb04U, 0x1863fffbf90714cbU, 0xd51ce50ee6bee9d5U,
  0xb919f6f4e810f401U, 0xebede20fd9da43eaU, 0x191cee0d1407eef5U, 0xc7eba6def2f5000fU,
  0x3151bf30df52511U, 0xe80eff200dffcad3U, 0xf1f301f80e00eb1aU, 0x1b1e0305e9eafc15U,
  0xfd04ba2e042116dfU, 0x18ed0002ae09f610U, 0xdffffccc0U, 0x3463ffffe099U,
  0xffff8e6000003b2bU, 0x620000000fU, 0x46000005289U, 0xffffff24fffff9f8U,
  0x662000000035U, 0xfffffeabffffffadU, 0x27000026fdU, 0xfffffaafffffff55U,
  0x372bfffff346U, 0x118afffff750U, 0xfffff87c000005a5U, 0x29ffffff1c8U,
  0x76c900000204U, 0x1a400000268U, 0xac7ffffff60U, 0x339000039afU,
  0xfffffdf20000364dU, 0xfffffed0fffff122U, 0xffffdd070000014cU, 0x7c3ffffcd52U,
  0xea1f00002e33U, 0xffffed3f00002430U, 0xffffeb19ffffd9baU, 0xffffcc62fffff231U,
  0x116000000bcU, 0xffffff4bffffff82U, 0xffffee480000257dU, 0x3015fffff1baU,
  0xfffff572000006a8U, 0x682700000ca3U, 0xfffffdedfffff13eU, 0xfffffce7ffffefe1U,
  0x61faffffd344U, 0x2798000014e4U, 0xa69ffffdf68U, 0x579600007089U,
  0x6fffffff4c9U, 0x184ffffef54U, 0xffffd91afffff5bcU, 0xffff94bdffffe1deU,
  0xfffffce8ffffff93U, 0xffffeeb1fffffea1U, 0xfffffe390001b6d9U, 0xd1affffef42U,
  0xffffdbc70000406eU, 0xf77bfffff6c5U, 0xfffffe480000030eU, 0xffffedd1ffffd519U,
  0xffffff4500000f36U, 0x1994fffff4c1U, 0xffffffdaffffff90U, 0x1123000002a4U,
  0xffffff6fffffff37U, 0xfffff1e2ffffef82U, 0xffffd476fffff030U, 0xfffff8b5000012eeU,
  0x50100004788U, 0xfffffe770000017dU, 0xffffecaeffffe429U, 0xffffdd3300000a86U,
  0xfffff6cefffff271U, 0x4112000074beU, 0xfffff3f0ffffffcbU, 0xfffff955fffffd83U,
  0xfffffe5b00004fe8U, 0x2c9ffffffd3fU, 0xffffe215ffffffcaU, 0xffffffe1fffffff0U,
  0x4b80000000bU, 0xffffd6d6ffffeaeeU, 0x1ed5d071c212cf8U, 0x4d05fdc703fbf9eaU,
  0x2bfb21020ffce1f9U, 0x120fd7010036e1f8U, 0xebd5fcf8dbe81511U, 0xfbfb37ea0110f3f1U,
  0x1817220d2612d9e2U, 0x2dfeef20ce20e1faU, 0x5feeff7c714dcd0U, 0x7fbe3f32112f301U,
  0xee11fd20730eff01U, 0x1a0d4c0104c11c64U, 0x182e078100f1fd03U, 0xdbfe2e1aceff0efdU,
  0xf7efe8e50adb190fU, 0x2fdf00e1f0a2bedU, 0x5ee0afbe9e1f216U, 0x37fb0c1b1af3e301U,
  0xad3dcb210a2e3300U, 0xbf23441fdaeec70eU, 0x2cf6e6b7fe5115d9U, 0xbdce01feef06eb26U,
  0x150f501609fa34eeU, 0x1bea7a30f5f20ae7U, 0xde02fe0f0aea0701U, 0x3910f3fd4bee2c95U,
  0x2bb23d2fd0f18fdU, 0x4c9a20d911e4e1f6U, 0x3b4dd9f30f9cf836U, 0xbf0909d81f2e4802U,
  0xa3ce87f1b3a1123U, 0x9f02315f428d4eeU, 0xe010cae8e00e2feeU, 0x2afc07b3c510ed10U,
  0x9f8a6def9e2c9f1U, 0xebdff33ad938105fU, 0x8f8fff220191558U, 0x10f412002232bfb2U,
  0x1513f8370f1deafcU, 0x1ad8031d38c908f3U, 0x26d703fb3525dcceU, 0x38812100fab4280cU,
  0x30d2eb0af7cbe004U, 0xe7bd02229d13fac4U, 0xf83fe602fee12508U, 0x1513403b3ed32dU,
  0xdcd8f1f303e3eae9U, 0x3218df1df0eace07U, 0xa3b03e4f6e62d0dU, 0xe63dd32c5726db09U,
  0x118c7d239b2e8efU, 0xd5003130f44c061dU, 0xd0e638eb1e033a2eU, 0xd4cabb10fd1d1025U,
  0xfbc6c7eee5c9f270U, 0x1ec71dfc742123eU, 0xc21119de00422105U, 0x3ed1c182af9d712U,
  0x25d408ef1b3c7fc2U, 0x3df3606c80625f5U, 0x1e17c0fcfe080425U, 0xce1604ee0cfeff9dU,
  0xfa1015da21ce55e1U, 0xd261b22ca260dffU, 0xdde9f4e9913e3cdeU, 0xdf00d005501be359U,
  0xde43af5cfb0cc3f4U, 0x3434e8e71b31e3c4U, 0x3900ec11192d1e33U, 0x2c5ecc6ff02d1b1U,
  0xf3f627fef0cdc4fbU, 0x17e8c60cd8002ac5U, 0xe50244d20a421806U, 0xaf0feee14013624U,
  0xe103ecfae002eb0fU, 0xe3f7b9fe0814ed0aU, 0xeeef4403191481e6U, 0xe6e919e9c10b03d0U,
  0xe413f3efedf8e6eeU, 0x2cf80bf9a7dfe7faU, 0xc2252ce51d0317f4U, 0x124d6f9fccf18f7U,
  0xcbd0f4e90137eefeU, 0x8efe5200adaed47U, 0x390fdae3ede709ecU, 0x362beee9f1fe2c2cU,
  0x2cee09e1fe14edf8U, 0xe7091bf6f91b2bf5U, 0x39000e040ad9181cU, 0x2708e7dffbe20c4cU,
  0xd3fa4c083a0331U, 0x33200aeae90decf0U, 0xa510d32f09e0c9f9U, 0xef0f04feef1bf1c4U,
  0xf53300cef0466c1bU, 0x1ff0c3e52cd8f600U, 0x8e6cd132823fdeeU, 0x22daf91a9feb01dfU,
  0xbfffd2536f61c53U, 0x71d212cfd811f09U, 0xf52af7dbf8fad0ecU, 0x970321f8ce09ebcfU,
  0x1950a520eb1d3204U, 0x91630c7ee2cb308U, 0x120eebf9fa03f6dbU, 0xfba01e37f1260204U,
  0xe84ae5dc2908fcf8U, 0x1f05e9e5381d210dU, 0xc5e3231713f1cdedU, 0xdc0424181ffb1ae8U,
  0x162329f70427f31bU, 0xdaf11101c7293cbaU, 0xdc1c3d07e5262008U, 0xe31301ffe508f9e7U,
  0xe1d42613121bffd9U, 0xe81625076210f626U, 0x100612e981e1fb0bU, 0x3707efbafa263de9U,
  0xe132f101ceefe30fU, 0xb1d10af0fc150cf6U, 0x1afa0b1c14e6230fU, 0x3140cf0e1f6e9dfU,
  0x2cf859ecfeccfdf9U, 0x6f716ecb6ded31cU, 0xfa08ec1e293f10d5U, 0x5618c42410f2fbebU,
  0x41400fafa02f2deU, 0x3d02f8ff0a0200U, 0x228040e02160003U, 0xf32ffe15ee0cf7faU,
  0xf7ecfcf1fcff0332U, 0x1f5e0f9020e00f1U, 0xf0fc812efcfee7faU, 0xfbe80c02f2fbfeebU,
  0xfe04f8f5ff021f0aU, 0x44030ff8f5f0030eU, 0x431f73401fbfff1U, 0xeefd01de030c31f2U,
  0xfafc2dfd07fa1a24U, 0xa0321f6fbefff0dU, 0xfd430ff3ec0b00fdU, 0xfbfef60900e7fbf6U,
  0x2210cfd05020b43U, 0x8fe32fe04f6ffU, 0xbe0ac619e77f1defU, 0xa13ce0837ede35dU,
  0x10ff2bf6012b36a9U, 0xd8d92ae9f3214307U, 0x26fce698e0f1f4d9U, 0x56ebec3428fb29b4U,
  0xf8e9eb16168522ebU, 0x92503134d2c06d4U, 0x212f5bbd908f71cU, 0x13de12fcc9e2fe0dU,
  0xedd1fedac9f20be3U, 0xc406133e272ff169U, 0xd40ccc0608063c00U, 0x144f08de07ebd30aU,
  0xd471b5b21de09dbU, 0xe5e9e1f3f13acc05U, 0xe7eee79319f1c205U, 0x18eedc02fb33f3ddU,
  0xc38b67f000714b2U, 0x20e80719f01eb604U, 0xed5fdee3bfa3402U, 0x1f10f6111afb03eeU,
  0xbf320072ed4f0fcU, 0xf51ef7e079fcfb37U, 0x2edf0b0bc908d10bU, 0xf11f01ec23570a09U,
  0xfa03ecf733faf8c2U, 0x1933182301f1fbf4U, 0xd9ebe9fdbe183522U, 0x7df81e09b0ea0accU,
  0xfae212edd919df09U, 0x8e8fb39061b9ee3U, 0x300e65f2081ae611U, 0x6a5ca0113150725U,
  0x13fb0420f8e3e22bU, 0x1be5c70c12eaff1fU, 0xe08fefce8f107f1U, 0xcaf401dd02f8e8e8U,
  0xcf617f60e0ed8fdU, 0xf10a7f090c2be7e2U, 0xf2ec83242034fcfeU, 0xa134b0214edf710U,
  0x150eed15f8250e10U, 0xe1faec05ff0d02abU, 0x3ffeaf0b0409130fU, 0x2404f5f5e81afd10U,
  0xbf8f6fa17fdf616U, 0xf70220f01d08e111U, 0x172ef4170f0ffa06U, 0xdaf52623c42a0d0bU,
  0x4eb219bf7fcf8f4U, 0xf40420f114322efbU, 0xeb0e0209e1eeed15U, 0x13f40e3b05d50fc9U,
